const unsigned char model[] = {
  0x20, 0x00, 0x00, 0x00, 0x54, 0x46, 0x4c, 0x33, 0x00, 0x00, 0x00, 0x00,
  0x14, 0x00, 0x20, 0x00, 0x1c, 0x00, 0x18, 0x00, 0x14, 0x00, 0x10, 0x00,
  0x0c, 0x00, 0x00, 0x00, 0x08, 0x00, 0x04, 0x00, 0x14, 0x00, 0x00, 0x00,
  0x1c, 0x00, 0x00, 0x00, 0x8c, 0x00, 0x00, 0x00, 0xe4, 0x00, 0x00, 0x00,
  0x04, 0x19, 0x00, 0x00, 0x14, 0x19, 0x00, 0x00, 0x04, 0x26, 0x00, 0x00,
  0x03, 0x00, 0x00, 0x00, 0x01, 0x00, 0x00, 0x00, 0x10, 0x00, 0x00, 0x00,
  0x00, 0x00, 0x0a, 0x00, 0x10, 0x00, 0x0c, 0x00, 0x08, 0x00, 0x04, 0x00,
  0x0a, 0x00, 0x00, 0x00, 0x0c, 0x00, 0x00, 0x00, 0x1c, 0x00, 0x00, 0x00,
  0x38, 0x00, 0x00, 0x00, 0x0f, 0x00, 0x00, 0x00, 0x73, 0x65, 0x72, 0x76,
  0x69, 0x6e, 0x67, 0x5f, 0x64, 0x65, 0x66, 0x61, 0x75, 0x6c, 0x74, 0x00,
  0x01, 0x00, 0x00, 0x00, 0x04, 0x00, 0x00, 0x00, 0x9c, 0xff, 0xff, 0xff,
  0x1d, 0x00, 0x00, 0x00, 0x04, 0x00, 0x00, 0x00, 0x05, 0x00, 0x00, 0x00,
  0x64, 0x65, 0x6e, 0x73, 0x65, 0x00, 0x00, 0x00, 0x01, 0x00, 0x00, 0x00,
  0x04, 0x00, 0x00, 0x00, 0x92, 0xe7, 0xff, 0xff, 0x04, 0x00, 0x00, 0x00,
  0x07, 0x00, 0x00, 0x00, 0x69, 0x6e, 0x70, 0x75, 0x74, 0x5f, 0x31, 0x00,
  0x02, 0x00, 0x00, 0x00, 0x34, 0x00, 0x00, 0x00, 0x04, 0x00, 0x00, 0x00,
  0xdc, 0xff, 0xff, 0xff, 0x1b, 0x00, 0x00, 0x00, 0x04, 0x00, 0x00, 0x00,
  0x13, 0x00, 0x00, 0x00, 0x43, 0x4f, 0x4e, 0x56, 0x45, 0x52, 0x53, 0x49,
  0x4f, 0x4e, 0x5f, 0x4d, 0x45, 0x54, 0x41, 0x44, 0x41, 0x54, 0x41, 0x00,
  0x08, 0x00, 0x0c, 0x00, 0x08, 0x00, 0x04, 0x00, 0x08, 0x00, 0x00, 0x00,
  0x1a, 0x00, 0x00, 0x00, 0x04, 0x00, 0x00, 0x00, 0x13, 0x00, 0x00, 0x00,
  0x6d, 0x69, 0x6e, 0x5f, 0x72, 0x75, 0x6e, 0x74, 0x69, 0x6d, 0x65, 0x5f,
  0x76, 0x65, 0x72, 0x73, 0x69, 0x6f, 0x6e, 0x00, 0x1c, 0x00, 0x00, 0x00,
  0x1c, 0x18, 0x00, 0x00, 0x14, 0x18, 0x00, 0x00, 0xf8, 0x17, 0x00, 0x00,
  0xd4, 0x17, 0x00, 0x00, 0xb8, 0x17, 0x00, 0x00, 0x28, 0x17, 0x00, 0x00,
  0x98, 0x16, 0x00, 0x00, 0x08, 0x16, 0x00, 0x00, 0x78, 0x15, 0x00, 0x00,
  0x48, 0x15, 0x00, 0x00, 0x34, 0x15, 0x00, 0x00, 0x44, 0x14, 0x00, 0x00,
  0x54, 0x13, 0x00, 0x00, 0x64, 0x12, 0x00, 0x00, 0x74, 0x11, 0x00, 0x00,
  0x64, 0x0d, 0x00, 0x00, 0x54, 0x09, 0x00, 0x00, 0x44, 0x05, 0x00, 0x00,
  0x34, 0x01, 0x00, 0x00, 0x2c, 0x01, 0x00, 0x00, 0xfc, 0x00, 0x00, 0x00,
  0xac, 0x00, 0x00, 0x00, 0xa4, 0x00, 0x00, 0x00, 0x9c, 0x00, 0x00, 0x00,
  0x94, 0x00, 0x00, 0x00, 0x8c, 0x00, 0x00, 0x00, 0x6c, 0x00, 0x00, 0x00,
  0x04, 0x00, 0x00, 0x00, 0x76, 0xe8, 0xff, 0xff, 0x04, 0x00, 0x00, 0x00,
  0x58, 0x00, 0x00, 0x00, 0x0c, 0x00, 0x00, 0x00, 0x08, 0x00, 0x0e, 0x00,
  0x08, 0x00, 0x04, 0x00, 0x08, 0x00, 0x00, 0x00, 0x10, 0x00, 0x00, 0x00,
  0x28, 0x00, 0x00, 0x00, 0x00, 0x00, 0x06, 0x00, 0x08, 0x00, 0x04, 0x00,
  0x06, 0x00, 0x00, 0x00, 0x04, 0x00, 0x00, 0x00, 0x01, 0x00, 0x00, 0x00,
  0xeb, 0x03, 0x00, 0x00, 0x00, 0x00, 0x0a, 0x00, 0x10, 0x00, 0x0c, 0x00,
  0x08, 0x00, 0x04, 0x00, 0x0a, 0x00, 0x00, 0x00, 0x02, 0x00, 0x00, 0x00,
  0x02, 0x00, 0x00, 0x00, 0x04, 0x00, 0x00, 0x00, 0x05, 0x00, 0x00, 0x00,
  0x32, 0x2e, 0x39, 0x2e, 0x32, 0x00, 0x00, 0x00, 0xda, 0xe8, 0xff, 0xff,
  0x04, 0x00, 0x00, 0x00, 0x10, 0x00, 0x00, 0x00, 0x31, 0x2e, 0x31, 0x34,
  0x2e, 0x30, 0x00, 0x00, 0x00, 0x00, 0x00, 0x00, 0x00, 0x00, 0x00, 0x00,
  0x74, 0xdc, 0xff, 0xff, 0x78, 0xdc, 0xff, 0xff, 0x7c, 0xdc, 0xff, 0xff,
  0x80, 0xdc, 0xff, 0xff, 0x06, 0xe9, 0xff, 0xff, 0x04, 0x00, 0x00, 0x00,
  0x40, 0x00, 0x00, 0x00, 0x00, 0x08, 0x00, 0x08, 0x00, 0x08, 0x00, 0x08,
  0x00, 0x08, 0x00, 0x08, 0x00, 0x08, 0x00, 0x08, 0x00, 0x08, 0x00, 0x08,
  0x00, 0x08, 0x00, 0x08, 0x00, 0x08, 0x00, 0x08, 0x00, 0x08, 0x00, 0x08,
  0x00, 0x08, 0x00, 0x08, 0x00, 0x08, 0x00, 0x08, 0x00, 0x08, 0x00, 0x08,
  0x00, 0x08, 0x00, 0x08, 0x00, 0x08, 0x00, 0x08, 0x00, 0x08, 0x00, 0x08,
  0x00, 0x08, 0x00, 0x08, 0x00, 0x08, 0x00, 0x08, 0x52, 0xe9, 0xff, 0xff,
  0x04, 0x00, 0x00, 0x00, 0x20, 0x00, 0x00, 0x00, 0x02, 0x02, 0x02, 0x02,
  0x02, 0x02, 0x02, 0x02, 0x02, 0x02, 0x02, 0x02, 0x02, 0x02, 0x02, 0x02,
  0x02, 0x02, 0x02, 0x02, 0x02, 0x02, 0x02, 0x02, 0x02, 0x02, 0x02, 0x02,
  0x02, 0x02, 0x02, 0x02, 0xfc, 0xdc, 0xff, 0xff, 0x82, 0xe9, 0xff, 0xff,
  0x04, 0x00, 0x00, 0x00, 0x00, 0x04, 0x00, 0x00, 0x34, 0x21, 0xb4, 0x0e,
  0x3c, 0x33, 0xee, 0x0a, 0x4d, 0x02, 0xda, 0x23, 0xfa, 0x0d, 0x27, 0xdf,
  0x2e, 0xf8, 0xde, 0x02, 0x00, 0xdc, 0x1a, 0x15, 0xff, 0xcd, 0x21, 0x1b,
  0xd7, 0xd5, 0xc9, 0x24, 0x10, 0xe6, 0xf7, 0xcc, 0xe5, 0xdc, 0xf0, 0xc1,
  0xde, 0x29, 0xdf, 0xfa, 0xdb, 0xf7, 0xe5, 0xea, 0xbe, 0x22, 0x23, 0x1d,
  0xb5, 0x1b, 0xa6, 0x18, 0xe9, 0x39, 0xd0, 0x0f, 0xeb, 0xeb, 0x3a, 0xe7,
  0x45, 0x0d, 0x96, 0xc5, 0x03, 0x0a, 0xde, 0xc2, 0xfe, 0xfd, 0xd0, 0x08,
  0xd3, 0x29, 0x0e, 0x38, 0xcd, 0x17, 0xea, 0x38, 0xfa, 0x22, 0xe4, 0x29,
  0xc8, 0x0a, 0xf3, 0x0a, 0x00, 0xba, 0x0a, 0xda, 0xdc, 0x3a, 0x1f, 0x81,
  0xc9, 0xfe, 0xe9, 0xd9, 0xfc, 0x1e, 0xe2, 0xf0, 0x00, 0xeb, 0xe3, 0x01,
  0xe6, 0x28, 0x38, 0xdf, 0xb2, 0x26, 0xdf, 0x12, 0x1b, 0x55, 0xfe, 0xfe,
  0xfa, 0x08, 0x30, 0xf8, 0xfa, 0xf2, 0xf3, 0x04, 0xf5, 0x21, 0xed, 0x16,
  0x0b, 0x0d, 0xf5, 0x08, 0x17, 0xfe, 0xe6, 0xf4, 0x10, 0xf6, 0x02, 0x10,
  0x10, 0x36, 0x0d, 0xfa, 0xe8, 0x2c, 0xe3, 0x1f, 0xe4, 0xd6, 0xef, 0xbe,
  0xf6, 0x13, 0x38, 0x06, 0xf2, 0xd3, 0x04, 0xeb, 0xf3, 0x00, 0xf6, 0x00,
  0x2d, 0xdf, 0xe5, 0xdb, 0xef, 0x30, 0x1d, 0x26, 0x2b, 0x1c, 0x0e, 0xd8,
  0xfd, 0x0b, 0xe6, 0x12, 0x05, 0x18, 0x25, 0xc9, 0x01, 0xef, 0x0e, 0x9c,
  0xda, 0xe9, 0xf0, 0xe8, 0xb5, 0x35, 0xb5, 0xc0, 0x13, 0xf4, 0x02, 0xef,
  0xd7, 0x31, 0x11, 0xfb, 0x26, 0x1e, 0x16, 0xf8, 0xeb, 0x29, 0xd7, 0x09,
  0xf9, 0x0c, 0x0b, 0x1e, 0xd4, 0x2a, 0x28, 0xe3, 0x12, 0xa3, 0x59, 0xdb,
  0xeb, 0x1d, 0x1c, 0xe2, 0xf7, 0xd0, 0xf0, 0x15, 0xd5, 0xfd, 0x11, 0xcf,
  0xdd, 0x0c, 0xeb, 0xcb, 0xd9, 0xfb, 0x0a, 0x14, 0x1f, 0x39, 0x11, 0xef,
  0x1d, 0xe9, 0xe5, 0xff, 0x0c, 0x29, 0xfb, 0xf5, 0x0a, 0x0f, 0xe1, 0xcb,
  0xfd, 0xf1, 0xe3, 0x04, 0xf6, 0x13, 0x02, 0x26, 0x32, 0x16, 0x08, 0x15,
  0xf7, 0xdd, 0x07, 0x53, 0xe6, 0xfe, 0xec, 0xff, 0x1f, 0xfb, 0xdc, 0xdd,
  0x01, 0xaf, 0xef, 0x16, 0xc4, 0x15, 0xf8, 0xcf, 0x0e, 0xed, 0xdc, 0x04,
  0x06, 0x30, 0x0b, 0xee, 0x32, 0xfc, 0x08, 0x3e, 0xe9, 0x00, 0xd7, 0x42,
  0x07, 0xec, 0xf8, 0x42, 0x42, 0x30, 0x02, 0xcf, 0xdf, 0x2a, 0x24, 0xe4,
  0x01, 0x12, 0xe4, 0xf2, 0x2e, 0x0f, 0x1c, 0xda, 0xb1, 0x02, 0x23, 0xdd,
  0xe8, 0xe4, 0xda, 0x20, 0xe9, 0x50, 0xe3, 0x2d, 0xc2, 0x0d, 0x41, 0xd6,
  0x19, 0xfc, 0xea, 0x0d, 0x31, 0x01, 0xf6, 0xfd, 0x11, 0x46, 0xf0, 0x02,
  0x05, 0x25, 0x12, 0x04, 0x07, 0xfa, 0xf8, 0x00, 0x41, 0xf5, 0x1e, 0x54,
  0xc1, 0xd0, 0x05, 0x0e, 0xbb, 0xcf, 0x07, 0x11, 0x0a, 0xf2, 0x03, 0x0b,
  0xff, 0xda, 0xab, 0x12, 0xdd, 0x0c, 0x06, 0xeb, 0x1a, 0xef, 0xee, 0xf4,
  0x12, 0x11, 0xdb, 0x0b, 0x30, 0xfe, 0x08, 0xff, 0x26, 0xc9, 0xfc, 0x15,
  0x13, 0x04, 0xf3, 0x31, 0xf6, 0x10, 0x15, 0x01, 0x0f, 0x29, 0xfd, 0x0e,
  0xf8, 0x09, 0x07, 0x0d, 0xbb, 0xda, 0x18, 0xd0, 0x10, 0xec, 0x03, 0x1c,
  0x0c, 0x1f, 0x23, 0x02, 0x0c, 0xff, 0x02, 0xf7, 0x05, 0xe8, 0x07, 0x26,
  0xed, 0x0d, 0xe3, 0x01, 0xcc, 0xbd, 0x1b, 0xdb, 0x0b, 0x09, 0xd2, 0x0e,
  0x19, 0xf8, 0xc9, 0xe3, 0xf5, 0xfd, 0x11, 0xfa, 0x1a, 0x04, 0x0a, 0xf3,
  0xe8, 0x15, 0xfd, 0xf5, 0xf6, 0x06, 0xe6, 0xdf, 0x45, 0xef, 0x12, 0xf3,
  0xf5, 0xdb, 0x30, 0x1c, 0x01, 0xf5, 0xd7, 0xcf, 0x1a, 0xf6, 0x06, 0xa3,
  0x24, 0x1a, 0xdc, 0x2d, 0xfa, 0x0a, 0x4a, 0x19, 0x37, 0x0a, 0xf7, 0x57,
  0xf0, 0xf1, 0xfa, 0x08, 0xf7, 0x0a, 0x0f, 0xeb, 0x02, 0x00, 0x1d, 0x2c,
  0x1a, 0x07, 0xe1, 0xe9, 0xfe, 0xef, 0xe0, 0xd5, 0x04, 0xfb, 0xe4, 0xdf,
  0x0e, 0x0a, 0x1a, 0x04, 0xea, 0xe8, 0xfc, 0x22, 0xca, 0x0d, 0x1e, 0x0a,
  0xf3, 0xfa, 0xf9, 0x04, 0x0e, 0x03, 0x0e, 0x2c, 0xd8, 0x22, 0xf9, 0xd0,
  0xeb, 0xf9, 0xcc, 0xcd, 0xfb, 0x1d, 0x15, 0xf2, 0x7a, 0x00, 0x26, 0x41,
  0xba, 0xe0, 0x04, 0x0e, 0xe8, 0xf4, 0x2d, 0x05, 0xf5, 0xe0, 0x05, 0x24,
  0x0e, 0xe4, 0xd1, 0x01, 0xee, 0x1e, 0xcf, 0x07, 0x04, 0xed, 0xe1, 0x17,
  0xc1, 0x05, 0xfc, 0xf1, 0x38, 0x0f, 0xeb, 0x20, 0x10, 0x1c, 0xc7, 0x23,
  0xf4, 0xd2, 0x1a, 0x21, 0x30, 0xfb, 0xfd, 0xec, 0xfe, 0x0c, 0xf3, 0xed,
  0xf6, 0x0f, 0xbc, 0x26, 0x25, 0x24, 0xea, 0xf9, 0x17, 0x17, 0x17, 0xe5,
  0x20, 0x00, 0xda, 0x12, 0xe9, 0xe6, 0xe7, 0x12, 0x18, 0xa8, 0x32, 0xdb,
  0xdc, 0x02, 0xf3, 0xc9, 0x05, 0xf0, 0xf3, 0x12, 0xdd, 0xf4, 0x2d, 0x11,
  0xfb, 0xf7, 0x13, 0x04, 0xf4, 0x10, 0x0a, 0xe3, 0xf8, 0x0e, 0xd0, 0x19,
  0x19, 0xf8, 0xfa, 0xf2, 0xfc, 0xdd, 0x03, 0xf7, 0x29, 0x07, 0x02, 0x12,
  0x0c, 0xe8, 0x15, 0xec, 0x07, 0x01, 0xf7, 0xec, 0x06, 0xe0, 0xe1, 0x00,
  0xfb, 0xed, 0xc5, 0xfa, 0x33, 0x2a, 0x10, 0x16, 0xf5, 0xe2, 0xe6, 0xfc,
  0x13, 0xe4, 0xe9, 0x20, 0x28, 0x27, 0xe5, 0x9a, 0x05, 0x22, 0x14, 0x0b,
  0x15, 0x0d, 0xd9, 0xf1, 0x0e, 0x1f, 0x01, 0xf0, 0x00, 0xf0, 0x03, 0xec,
  0xd3, 0x2b, 0xfc, 0x27, 0x11, 0x2c, 0xfa, 0x1a, 0xa0, 0xe9, 0x11, 0x12,
  0x1e, 0xef, 0xbe, 0xd2, 0x04, 0xfe, 0xfa, 0xdc, 0x28, 0xd4, 0xfb, 0x06,
  0x07, 0xfd, 0x1c, 0xc7, 0xf9, 0xe5, 0x1b, 0x1f, 0x29, 0xe4, 0x2b, 0x32,
  0xd7, 0xff, 0xef, 0x31, 0xdd, 0xd8, 0xfc, 0xe7, 0x05, 0x04, 0xc0, 0x02,
  0x1d, 0x15, 0x04, 0x12, 0xf2, 0xfa, 0xfa, 0x0f, 0xea, 0x0e, 0x29, 0x25,
  0x0e, 0x01, 0xfe, 0xf9, 0xfd, 0x15, 0x0e, 0x0e, 0x0a, 0xde, 0xf3, 0x0a,
  0xf7, 0xf8, 0xe7, 0xca, 0x30, 0xf6, 0xf9, 0xae, 0x00, 0x23, 0x3b, 0xeb,
  0x0c, 0x03, 0xb5, 0x0c, 0x11, 0x40, 0xd7, 0x28, 0xfc, 0x20, 0x1c, 0xf4,
  0xec, 0x1d, 0x25, 0x08, 0xdf, 0xff, 0xe8, 0x26, 0xe1, 0xed, 0xed, 0xff,
  0xe8, 0xeb, 0xfc, 0x15, 0xfa, 0xfa, 0x06, 0xf1, 0x12, 0x10, 0xe5, 0xeb,
  0xf7, 0x09, 0x08, 0x1a, 0xfa, 0x06, 0x2a, 0x20, 0x29, 0x20, 0xfe, 0xec,
  0xe3, 0xff, 0xe1, 0xfb, 0xee, 0xe7, 0x13, 0xf8, 0x36, 0x17, 0xe1, 0x9f,
  0x0c, 0x0d, 0x11, 0xe6, 0x3f, 0x1a, 0xe7, 0x31, 0x1a, 0xfa, 0xff, 0xf7,
  0xd2, 0xd1, 0x1c, 0x14, 0xf4, 0xed, 0x06, 0xf6, 0x16, 0x1b, 0xdd, 0x19,
  0xdb, 0xc7, 0xf7, 0xe8, 0xf9, 0x1c, 0x70, 0x0a, 0xf0, 0x14, 0x1b, 0xd3,
  0xf3, 0xdf, 0x0f, 0xd2, 0x0e, 0xd8, 0x1c, 0xf8, 0xe9, 0xd4, 0xdd, 0xf0,
  0xc2, 0xff, 0x0a, 0x07, 0x1a, 0x22, 0x19, 0xe9, 0x23, 0x30, 0xfe, 0xee,
  0x0e, 0xdd, 0x19, 0xf9, 0xc6, 0xce, 0xfa, 0xda, 0xf0, 0x11, 0xed, 0xf6,
  0xdb, 0xee, 0xe1, 0x18, 0x0e, 0xee, 0xf1, 0x23, 0x2c, 0x0d, 0x0a, 0x26,
  0x01, 0x28, 0xfe, 0xe4, 0x03, 0xed, 0x2a, 0x01, 0x2a, 0x0a, 0x0f, 0xed,
  0xfb, 0xfb, 0xbd, 0x0a, 0xfe, 0x42, 0xf0, 0xf8, 0x26, 0x1c, 0xef, 0xfd,
  0x16, 0xf2, 0xfe, 0x0b, 0x15, 0xf4, 0x2f, 0x19, 0xf1, 0xf8, 0xe2, 0x33,
  0xd8, 0xd6, 0xf0, 0x2c, 0x04, 0xfb, 0x18, 0xd8, 0x04, 0x16, 0xef, 0x37,
  0x14, 0x19, 0x29, 0x0d, 0x2b, 0x10, 0xda, 0x05, 0x21, 0xdf, 0x08, 0x09,
  0x08, 0xfb, 0xec, 0x01, 0x32, 0x0a, 0xd2, 0xe6, 0xdd, 0xf7, 0x16, 0x31,
  0x8e, 0xed, 0xff, 0xff, 0x04, 0x00, 0x00, 0x00, 0x00, 0x04, 0x00, 0x00,
  0xd5, 0xe3, 0xf7, 0xc0, 0x20, 0x0a, 0x01, 0xfe, 0x25, 0xda, 0xc1, 0xf4,
  0x12, 0x02, 0xf4, 0xb5, 0x1b, 0x21, 0xe7, 0xee, 0x15, 0xf0, 0x10, 0x15,
  0x14, 0x25, 0xea, 0x23, 0x12, 0xfe, 0xdf, 0x0e, 0xb6, 0xfb, 0x32, 0xc9,
  0xe3, 0xd3, 0xfb, 0x01, 0xce, 0x45, 0x28, 0xb7, 0xed, 0xcf, 0xf2, 0xe9,
  0xd1, 0x14, 0x38, 0x8e, 0xed, 0x23, 0xde, 0xe6, 0x2b, 0x18, 0xca, 0xb5,
  0xe4, 0x19, 0x52, 0xd9, 0xbf, 0x7f, 0xfc, 0x19, 0x0a, 0x2d, 0x19, 0x1b,
  0xe6, 0x10, 0x16, 0x02, 0x22, 0x15, 0x05, 0xdf, 0xf1, 0xc5, 0xf7, 0xd5,
  0xf6, 0x19, 0xf5, 0x0c, 0x2c, 0xe3, 0xf7, 0xe2, 0xdf, 0x64, 0xf4, 0xea,
  0x48, 0xd0, 0xdb, 0xf2, 0x2f, 0x17, 0x08, 0xf4, 0x23, 0xe7, 0xce, 0x55,
  0x2f, 0x2b, 0xe6, 0x5f, 0xfe, 0xc8, 0xd8, 0xec, 0xf9, 0x03, 0x1d, 0x0c,
  0xe9, 0xe5, 0x2a, 0x27, 0x62, 0xf3, 0xf4, 0x24, 0x28, 0x14, 0xbd, 0xf7,
  0x44, 0x15, 0xe2, 0x23, 0xf7, 0xe6, 0xf1, 0x24, 0x35, 0x2e, 0xd1, 0xd5,
  0xe9, 0xf8, 0xfd, 0xe8, 0x16, 0xb1, 0xfa, 0x0b, 0x0b, 0x2e, 0x19, 0xf7,
  0x27, 0xe3, 0xda, 0x34, 0x0f, 0xef, 0x01, 0xdd, 0xe0, 0xa2, 0xd5, 0x10,
  0xee, 0x07, 0xf3, 0x1f, 0x2d, 0x1d, 0x01, 0xe5, 0x13, 0xe2, 0x07, 0x1c,
  0xfc, 0x20, 0xff, 0xe2, 0x08, 0x0d, 0xfe, 0xdf, 0x37, 0xd0, 0x24, 0xe9,
  0xf6, 0x43, 0x3a, 0xd2, 0x05, 0xc0, 0xe6, 0xe9, 0xed, 0xee, 0xfd, 0xf0,
  0x15, 0xd3, 0x02, 0x02, 0xd7, 0x03, 0x19, 0x08, 0x99, 0xdf, 0x15, 0xca,
  0x28, 0x41, 0xfe, 0xc1, 0x2f, 0x2c, 0x1c, 0xd9, 0xc8, 0xcb, 0xed, 0xf8,
  0xde, 0x9a, 0xc5, 0xbb, 0xdd, 0xfd, 0x43, 0xf2, 0x13, 0xc1, 0x1b, 0xe3,
  0x11, 0x3b, 0x52, 0xf4, 0xe8, 0x01, 0xee, 0xba, 0x0d, 0x3e, 0xed, 0xe1,
  0x1b, 0xe7, 0x3b, 0xe5, 0x06, 0xf3, 0x0e, 0x0f, 0x2f, 0xe9, 0x0f, 0xe0,
  0x38, 0x06, 0xf8, 0x48, 0xf7, 0x0e, 0xeb, 0x30, 0x1a, 0xe8, 0xf3, 0xfb,
  0xc1, 0x15, 0x01, 0xeb, 0x02, 0x13, 0x31, 0x4f, 0x60, 0x05, 0xdd, 0xe6,
  0xdd, 0xe5, 0xc6, 0x36, 0x2b, 0x30, 0x33, 0x49, 0x12, 0xf7, 0x2d, 0xdd,
  0x05, 0x12, 0xf4, 0x46, 0x3d, 0xfe, 0xd8, 0x04, 0x43, 0x02, 0x1c, 0x0f,
  0xbb, 0xc8, 0xfa, 0xda, 0xe9, 0x19, 0xe5, 0x14, 0x1f, 0xa2, 0xd2, 0x2b,
  0xc0, 0x16, 0xbd, 0xee, 0x17, 0x2d, 0x2e, 0x0d, 0x0e, 0xcc, 0x2f, 0x1e,
  0x1e, 0xea, 0xdc, 0x2f, 0x20, 0x37, 0xed, 0x1e, 0xe8, 0xcb, 0xcb, 0x10,
  0x5b, 0xc3, 0xf2, 0x1b, 0x50, 0x34, 0x1e, 0x01, 0x00, 0xef, 0x24, 0xc0,
  0x04, 0xf4, 0xd9, 0x0a, 0xfa, 0x09, 0xe7, 0xf4, 0x0d, 0x1d, 0xfc, 0xfd,
  0xab, 0xb8, 0xf4, 0xd8, 0x2d, 0x2e, 0xed, 0x20, 0x0c, 0xf5, 0xf7, 0x09,
  0xf1, 0x09, 0xdf, 0xeb, 0x1b, 0x03, 0xd6, 0x1f, 0xd3, 0xd3, 0xd2, 0x09,
  0xeb, 0x04, 0xee, 0xbd, 0x34, 0xf7, 0xe8, 0xed, 0xf3, 0xe5, 0x04, 0x11,
  0x26, 0xc1, 0x19, 0x07, 0x02, 0xfc, 0xfd, 0xf8, 0xed, 0xed, 0xc5, 0xfe,
  0x1b, 0xe2, 0xf0, 0x20, 0x14, 0x02, 0xd7, 0x33, 0xee, 0x1e, 0xd4, 0xc9,
  0x02, 0x0a, 0x16, 0xed, 0xf6, 0xdc, 0x0a, 0xdf, 0x1a, 0xf0, 0xfe, 0xfb,
  0xd0, 0xc9, 0xd5, 0x02, 0xf2, 0x00, 0x49, 0x06, 0xd0, 0xfb, 0x0c, 0xba,
  0xfc, 0xfc, 0xcd, 0x11, 0x09, 0xb9, 0x17, 0x27, 0xdd, 0x16, 0x1f, 0x33,
  0xef, 0xf5, 0xca, 0xdd, 0xeb, 0x37, 0xc7, 0x30, 0x7e, 0x0c, 0x1b, 0xd6,
  0x45, 0xa1, 0xd8, 0x71, 0x08, 0x2e, 0xe6, 0xed, 0x69, 0xd7, 0xfc, 0x25,
  0x26, 0x17, 0x26, 0x1d, 0x20, 0x10, 0xbe, 0x45, 0x10, 0xfe, 0x28, 0x01,
  0xd0, 0xaa, 0x36, 0x51, 0x27, 0xe8, 0xb8, 0x35, 0xf5, 0x1a, 0x11, 0xe0,
  0x36, 0xd7, 0x21, 0xdf, 0x18, 0xf0, 0x9f, 0xfc, 0x24, 0x0a, 0xe8, 0x08,
  0xfa, 0x0e, 0xef, 0xfe, 0xe9, 0xbb, 0x09, 0xbf, 0x09, 0x1c, 0x13, 0x25,
  0x4d, 0xd1, 0xe2, 0xba, 0xe8, 0x02, 0x1c, 0x0d, 0x1f, 0x18, 0xe7, 0x17,
  0xfd, 0xec, 0x16, 0xdd, 0x03, 0x14, 0xeb, 0xe6, 0x20, 0xeb, 0xe7, 0xda,
  0x40, 0xf3, 0xe5, 0x3f, 0xc6, 0xd0, 0x1b, 0x0f, 0xcd, 0x24, 0xc3, 0x02,
  0xde, 0xd5, 0xe3, 0x0d, 0x18, 0x2c, 0x05, 0x27, 0x0d, 0xf4, 0x45, 0xef,
  0xcc, 0x10, 0x11, 0x14, 0xfa, 0x18, 0xc2, 0xf1, 0x24, 0x04, 0xfa, 0x08,
  0xea, 0x13, 0x19, 0xa8, 0xda, 0x0c, 0x01, 0xef, 0x4f, 0xf9, 0x3a, 0x00,
  0xfc, 0xe6, 0x3a, 0xc3, 0xe9, 0xd3, 0xaf, 0x27, 0x01, 0xef, 0x36, 0xf2,
  0x14, 0xfe, 0xdb, 0xe3, 0xea, 0xdd, 0x2e, 0x0d, 0xe6, 0x20, 0x15, 0x2e,
  0x20, 0xff, 0xe1, 0x14, 0x51, 0xa7, 0xe0, 0x10, 0xed, 0xf6, 0x15, 0xdc,
  0xfc, 0x25, 0xcf, 0x2a, 0xfd, 0x0b, 0xe0, 0x09, 0x20, 0xe0, 0xfb, 0x35,
  0x1e, 0x16, 0xfc, 0x12, 0xd7, 0xd3, 0xeb, 0xf8, 0x38, 0x00, 0xf4, 0x1e,
  0x15, 0x8b, 0xc2, 0x47, 0x0f, 0x06, 0xeb, 0x44, 0x30, 0x13, 0xf0, 0x0c,
  0x05, 0xf2, 0xdf, 0x6e, 0x2b, 0xef, 0xe0, 0x2f, 0x26, 0x1b, 0x1c, 0x14,
  0xc6, 0xe8, 0x0e, 0xe9, 0x00, 0x19, 0xfe, 0x19, 0x00, 0x0c, 0x50, 0xd4,
  0x14, 0x00, 0x26, 0xbf, 0x1a, 0xdf, 0xab, 0x0c, 0x0a, 0x17, 0x22, 0x1c,
  0x10, 0x22, 0x1d, 0x34, 0xf5, 0xb6, 0xe2, 0xdf, 0x0c, 0x19, 0x26, 0x2c,
  0x39, 0xe1, 0x04, 0xea, 0x02, 0xd6, 0xfa, 0xe6, 0xea, 0xc3, 0xed, 0xd5,
  0x03, 0x25, 0xe1, 0x09, 0xf1, 0xca, 0x13, 0x06, 0xec, 0x24, 0x03, 0xea,
  0xf8, 0x23, 0xef, 0xbf, 0x25, 0x0e, 0xcd, 0x16, 0x48, 0xd8, 0xfc, 0xe2,
  0xd4, 0x29, 0x02, 0xec, 0xd8, 0x24, 0xef, 0x39, 0xad, 0xf3, 0x18, 0xf9,
  0xe0, 0xdd, 0x22, 0xde, 0x13, 0xfd, 0x09, 0xce, 0x0a, 0xe1, 0x14, 0x10,
  0x26, 0x2a, 0xdd, 0xcd, 0xec, 0xfb, 0x1b, 0xd6, 0xe7, 0x1e, 0xec, 0xe9,
  0xe0, 0x15, 0xcb, 0x12, 0xdd, 0xc1, 0x19, 0xe6, 0x2a, 0xb8, 0x07, 0x2f,
  0xea, 0x0d, 0xd4, 0x18, 0xd3, 0xf2, 0x01, 0x0e, 0x31, 0xe0, 0xea, 0xd9,
  0xfb, 0xd2, 0x23, 0xe1, 0x40, 0x44, 0x40, 0xce, 0x1b, 0x32, 0x16, 0xe3,
  0xf4, 0xd0, 0xc8, 0x09, 0x1a, 0x30, 0xf4, 0xe8, 0xdf, 0xcb, 0xf0, 0xe4,
  0xe0, 0xc8, 0xbf, 0xdc, 0x22, 0x1f, 0x00, 0x26, 0x1c, 0x06, 0xd4, 0x08,
  0xe6, 0x3d, 0x47, 0xce, 0x0d, 0x03, 0x39, 0xe4, 0xd1, 0x1b, 0xb3, 0xf7,
  0x17, 0x28, 0xe2, 0xb9, 0x03, 0xf3, 0x27, 0xdb, 0xd9, 0xde, 0xef, 0x06,
  0x39, 0x1d, 0x29, 0x11, 0x1e, 0xf9, 0xff, 0xf5, 0x41, 0x0a, 0x0f, 0xec,
  0x60, 0x1a, 0x42, 0xfd, 0x1a, 0xe5, 0x9d, 0x20, 0xfe, 0x19, 0xf7, 0xf5,
  0x21, 0x34, 0xad, 0x36, 0x01, 0xeb, 0xf1, 0x33, 0xc3, 0xa7, 0x3f, 0x25,
  0xe5, 0x1f, 0xc5, 0x17, 0xdb, 0x0f, 0x2b, 0xe9, 0xe8, 0xfe, 0xd8, 0xef,
  0xd6, 0x16, 0x0e, 0x24, 0x1a, 0xe1, 0xfe, 0x0d, 0xfd, 0xfc, 0x11, 0xd5,
  0xf2, 0xee, 0xde, 0xce, 0xff, 0x3e, 0x16, 0xbe, 0x30, 0xd4, 0xdc, 0xde,
  0xdb, 0xdd, 0xf9, 0x0c, 0xdd, 0xe9, 0xda, 0x2c, 0x08, 0x31, 0x40, 0xc8,
  0xdd, 0xda, 0x23, 0x19, 0xe7, 0x08, 0x26, 0xfa, 0x24, 0x2f, 0x24, 0x0e,
  0xee, 0x16, 0xdc, 0xf0, 0x04, 0x17, 0xf0, 0xe8, 0x10, 0x06, 0x0e, 0xfe,
  0x2b, 0xe8, 0xdd, 0xee, 0x12, 0x0f, 0xe5, 0x2e, 0xf6, 0x06, 0xed, 0xf4,
  0x0e, 0xf8, 0xe9, 0xff, 0xf1, 0x1f, 0xf4, 0x40, 0x06, 0x12, 0xc6, 0xff,
  0x06, 0xcf, 0xd1, 0xe5, 0x9a, 0xf1, 0xff, 0xff, 0x04, 0x00, 0x00, 0x00,
  0x00, 0x04, 0x00, 0x00, 0x01, 0xfa, 0xc6, 0x02, 0x16, 0x0e, 0xfb, 0xd9,
  0x06, 0x07, 0xf4, 0x21, 0x1f, 0x3b, 0x20, 0xf2, 0x28, 0xf4, 0xe8, 0x26,
  0x0c, 0x38, 0x25, 0xf7, 0xf4, 0xf4, 0xf2, 0x11, 0xeb, 0x14, 0x0e, 0x14,
  0x14, 0x1c, 0xff, 0x12, 0x0e, 0xe8, 0x3e, 0xfd, 0xf1, 0xbb, 0x32, 0x20,
  0x0a, 0xf6, 0x20, 0xcc, 0xf4, 0xfe, 0xef, 0x0d, 0xe7, 0xee, 0xfc, 0x04,
  0x3b, 0xf7, 0xfa, 0x13, 0xf7, 0x0e, 0xeb, 0x1a, 0x3c, 0xf8, 0xe7, 0x04,
  0x1d, 0x16, 0xec, 0xe5, 0x0e, 0xef, 0xd0, 0x27, 0x31, 0xf9, 0x3a, 0xef,
  0x03, 0xd6, 0xf0, 0x24, 0xf0, 0x05, 0xe9, 0x21, 0xe0, 0x3f, 0x20, 0x40,
  0x0e, 0xe3, 0xe2, 0xff, 0x02, 0xe9, 0xf9, 0xe3, 0x12, 0x24, 0x0e, 0x3f,
  0x41, 0x07, 0x26, 0x03, 0xe4, 0x4b, 0xe0, 0x44, 0xec, 0xe9, 0x01, 0xfb,
  0xff, 0xfa, 0xeb, 0xea, 0x0f, 0x18, 0x3c, 0xb9, 0x26, 0x14, 0xeb, 0x2b,
  0x1c, 0x02, 0x29, 0x0c, 0xd8, 0x29, 0x1f, 0xdf, 0x0c, 0xaf, 0xb3, 0x16,
  0x06, 0xfb, 0x44, 0xe2, 0x15, 0xbf, 0xf6, 0x2d, 0xaa, 0x01, 0x05, 0x15,
  0x21, 0xfd, 0xe9, 0x24, 0x2e, 0xf6, 0xda, 0xd9, 0xff, 0x18, 0x0a, 0xf1,
  0x0f, 0xfb, 0x1d, 0xb5, 0x0f, 0xf3, 0xae, 0x04, 0x24, 0xec, 0xd2, 0x0b,
  0x32, 0xf7, 0xf9, 0x0c, 0x3f, 0xfd, 0x27, 0x00, 0x08, 0x0d, 0x09, 0x1e,
  0xda, 0x25, 0xe2, 0xe6, 0x1e, 0x0d, 0xed, 0xde, 0x00, 0x08, 0x05, 0xf9,
  0xe1, 0x07, 0xc1, 0x27, 0x0e, 0xf7, 0x06, 0xff, 0xc7, 0xfc, 0xed, 0x3d,
  0xc3, 0x10, 0xf3, 0x2b, 0x01, 0x26, 0xfa, 0x33, 0x16, 0xe9, 0x06, 0x0f,
  0xc4, 0x55, 0x63, 0x11, 0x1c, 0xd9, 0xfc, 0x3d, 0xf3, 0x32, 0x01, 0xe1,
  0xf2, 0xe2, 0x08, 0x09, 0x24, 0x4a, 0xe4, 0xda, 0x23, 0x2e, 0x16, 0xb8,
  0x0f, 0xab, 0xf7, 0xfe, 0xb6, 0x1e, 0xea, 0xee, 0x1d, 0x0c, 0xf6, 0xf4,
  0xdb, 0x07, 0xf0, 0x00, 0xce, 0xe5, 0xe0, 0xf8, 0xee, 0x03, 0x13, 0x1b,
  0xd7, 0xe9, 0xff, 0x4c, 0x0e, 0x01, 0xfb, 0x1e, 0x13, 0x05, 0xe0, 0x27,
  0x0e, 0xe9, 0x06, 0xe0, 0x0e, 0x09, 0x07, 0xcb, 0x22, 0x0a, 0x18, 0xed,
  0x1a, 0xeb, 0xa5, 0x03, 0x23, 0x0e, 0x01, 0xdb, 0x2f, 0xf2, 0x0e, 0x13,
  0xd9, 0xef, 0x2f, 0x30, 0x20, 0x00, 0xd0, 0x17, 0x01, 0xf9, 0xe0, 0xf2,
  0xf9, 0x10, 0x02, 0xed, 0xfb, 0x26, 0x62, 0xd3, 0x01, 0x2d, 0xfa, 0xd2,
  0x10, 0xe6, 0x3b, 0x0a, 0x13, 0xdd, 0xf5, 0x20, 0xe2, 0x27, 0x36, 0x00,
  0x1e, 0x29, 0xe8, 0x1b, 0x06, 0x08, 0xff, 0x02, 0xff, 0xdf, 0xd0, 0x2a,
  0x0f, 0xf1, 0xf9, 0xfc, 0xe9, 0xfb, 0xe4, 0xef, 0x1a, 0x01, 0xe7, 0x11,
  0x32, 0x07, 0xf2, 0xf8, 0x28, 0x12, 0xfd, 0x20, 0xe6, 0xc9, 0xfc, 0x03,
  0xed, 0xd8, 0xdd, 0x25, 0xe8, 0x21, 0x18, 0xef, 0xef, 0x01, 0x15, 0x35,
  0xed, 0x01, 0xee, 0x12, 0x28, 0x1e, 0xf2, 0xd3, 0x0d, 0x12, 0xfd, 0xdf,
  0x23, 0xfc, 0x44, 0xfb, 0x29, 0xf4, 0x18, 0x0d, 0x0c, 0x08, 0xd1, 0x1a,
  0x04, 0xf1, 0xe3, 0x43, 0xf5, 0x2e, 0x4f, 0xef, 0x18, 0x08, 0xee, 0x10,
  0x08, 0xff, 0x3e, 0x34, 0x25, 0xda, 0xc0, 0x5d, 0xfa, 0xd7, 0x0a, 0xfd,
  0xd1, 0x00, 0xfa, 0x08, 0x25, 0xf6, 0xe5, 0x24, 0xfc, 0x08, 0x10, 0xef,
  0xef, 0xbb, 0x1a, 0xc9, 0x0d, 0x0e, 0xa4, 0x0f, 0x2c, 0xe6, 0xfc, 0xff,
  0x2b, 0x0c, 0x0e, 0x17, 0x13, 0xed, 0xff, 0x01, 0xc7, 0x30, 0x15, 0x3f,
  0x10, 0xe3, 0xfb, 0xf9, 0xda, 0xff, 0x35, 0x13, 0x22, 0x12, 0x1e, 0xec,
  0xee, 0x18, 0x2c, 0xfc, 0xe5, 0xd9, 0xe3, 0xf5, 0x01, 0xe1, 0x1f, 0x0d,
  0xd8, 0x01, 0xf5, 0xbb, 0x12, 0xf3, 0x0d, 0xfd, 0x00, 0x18, 0xf6, 0x23,
  0xfe, 0x21, 0xec, 0xd3, 0x14, 0x1a, 0xfc, 0x18, 0x03, 0xfa, 0xe1, 0x29,
  0x26, 0x07, 0x05, 0x1a, 0xf3, 0x19, 0xe3, 0x04, 0xff, 0x1d, 0x23, 0x1a,
  0x0a, 0xe2, 0x0a, 0x2d, 0xea, 0xe2, 0x09, 0x01, 0x06, 0x08, 0xfb, 0xe0,
  0x07, 0x10, 0xea, 0xff, 0x14, 0x1b, 0xc2, 0xf7, 0xff, 0x1b, 0xf6, 0x00,
  0x01, 0x2f, 0x08, 0x0f, 0x7f, 0xf0, 0x15, 0x24, 0x0a, 0xe8, 0x2e, 0x47,
  0xf3, 0xfb, 0x06, 0x35, 0x37, 0xf6, 0x03, 0x11, 0x11, 0x06, 0x11, 0xf5,
  0xff, 0xe7, 0xf3, 0xf7, 0x2e, 0x1b, 0xff, 0xe8, 0x06, 0xe9, 0xee, 0xfd,
  0x01, 0xfc, 0x03, 0x07, 0x19, 0xdd, 0x04, 0x3b, 0xfe, 0xd4, 0xeb, 0x30,
  0x2f, 0xf6, 0xdf, 0xfc, 0x06, 0x02, 0xf3, 0xf1, 0xd8, 0x03, 0xf6, 0xf3,
  0xf2, 0x06, 0x27, 0x11, 0xfc, 0x1b, 0x19, 0xfd, 0x23, 0xe3, 0x09, 0xf0,
  0x09, 0xdc, 0x20, 0x10, 0x0e, 0x18, 0x0d, 0xe8, 0xfc, 0x52, 0x16, 0xd8,
  0x0d, 0x0a, 0x0f, 0x02, 0xdd, 0xe5, 0x22, 0x14, 0xff, 0x31, 0x31, 0xdc,
  0x01, 0x0b, 0xda, 0xf2, 0xf8, 0xfb, 0x27, 0x1d, 0x07, 0x15, 0xe7, 0x01,
  0x1b, 0xcc, 0x21, 0x14, 0x12, 0x05, 0x1b, 0x17, 0xdf, 0xfa, 0x41, 0xf7,
  0x02, 0xf9, 0xc4, 0xf3, 0x08, 0xef, 0x17, 0xe3, 0x03, 0x01, 0xdf, 0x3a,
  0xba, 0x07, 0xf9, 0x00, 0xff, 0x1f, 0xda, 0x53, 0x3c, 0xd5, 0xd9, 0x02,
  0x1b, 0xea, 0xa6, 0xb3, 0x05, 0x24, 0x00, 0x2d, 0x09, 0xce, 0x09, 0x0d,
  0x37, 0xfb, 0xf0, 0xf4, 0xf2, 0x01, 0x1c, 0x02, 0xf5, 0x2d, 0x09, 0x3c,
  0xe9, 0xeb, 0xf8, 0xf1, 0xc7, 0xbd, 0xeb, 0xe5, 0x0a, 0x0c, 0x06, 0xdc,
  0xea, 0x04, 0x15, 0xbb, 0x11, 0x0f, 0xce, 0x3a, 0x0a, 0x01, 0x0b, 0xf7,
  0x04, 0x00, 0xef, 0x3a, 0x0b, 0x07, 0x39, 0x0a, 0x17, 0x31, 0x2c, 0x1d,
  0x04, 0xcb, 0xfc, 0x0b, 0xf1, 0x2f, 0xf6, 0x06, 0xf3, 0x03, 0x3e, 0xed,
  0xff, 0x20, 0x13, 0x14, 0xfd, 0x08, 0x43, 0xfc, 0x06, 0xf2, 0x10, 0x09,
  0xf7, 0xf5, 0x13, 0x0a, 0xff, 0x10, 0xec, 0x04, 0x1d, 0x1b, 0xfe, 0xe4,
  0x09, 0xf4, 0xe9, 0x04, 0x10, 0x25, 0x01, 0x03, 0x16, 0x0c, 0x36, 0x08,
  0x0e, 0x16, 0x07, 0x1a, 0x1c, 0xd5, 0xe0, 0x12, 0xed, 0x23, 0xe8, 0xc5,
  0x0f, 0x0f, 0xea, 0xbe, 0x32, 0x27, 0x02, 0x0b, 0x11, 0xc5, 0xec, 0x07,
  0x0d, 0x02, 0xf9, 0xc1, 0xe8, 0xde, 0xc4, 0xff, 0x04, 0xe8, 0x0a, 0x0a,
  0x06, 0xf2, 0xf2, 0x42, 0xd9, 0x1a, 0x1e, 0x23, 0xce, 0xb7, 0xfd, 0x51,
  0x3d, 0xd5, 0xe5, 0xdb, 0x19, 0xe7, 0xfc, 0x99, 0xf6, 0x09, 0x04, 0xf8,
  0x20, 0xfd, 0xe3, 0x24, 0x03, 0x00, 0x1e, 0xf2, 0xe4, 0xdd, 0xe2, 0xe9,
  0xee, 0xdd, 0x14, 0x0b, 0x05, 0x0c, 0xed, 0x1e, 0xd4, 0xfb, 0xf4, 0xee,
  0x27, 0x12, 0x3f, 0xee, 0x18, 0xf3, 0x16, 0x0a, 0xec, 0xd9, 0x08, 0x16,
  0xe0, 0xed, 0xf3, 0xe4, 0x26, 0xe1, 0xc1, 0xee, 0xff, 0x01, 0x47, 0xea,
  0x47, 0x0e, 0x08, 0x37, 0x09, 0x05, 0xed, 0x35, 0xf2, 0x02, 0xf0, 0x26,
  0xf0, 0x24, 0xeb, 0x06, 0x1d, 0x25, 0x20, 0xe0, 0xf8, 0xe8, 0x0f, 0x3d,
  0x17, 0xfb, 0xf6, 0x15, 0x4e, 0xc3, 0x1b, 0x0f, 0xc2, 0xd2, 0xf2, 0xea,
  0xdc, 0x3a, 0x11, 0x1c, 0x1c, 0xeb, 0x0b, 0xe2, 0xfb, 0xff, 0xf6, 0x21,
  0x00, 0x03, 0xca, 0xdc, 0xfa, 0x04, 0x0f, 0x0a, 0x13, 0xfe, 0x05, 0x0c,
  0x01, 0xf5, 0x0b, 0x09, 0xf7, 0xf1, 0xfa, 0x13, 0x0b, 0xe2, 0x00, 0x03,
  0x17, 0xec, 0x14, 0xfb, 0xff, 0xfa, 0x08, 0xda, 0x08, 0xd8, 0x0a, 0x39,
  0x21, 0xe4, 0x0c, 0x08, 0x16, 0xdd, 0xc7, 0x6b, 0xe1, 0xe6, 0x19, 0xf1,
  0x2a, 0xf1, 0x24, 0xfb, 0x2b, 0xdf, 0xcd, 0xe6, 0xa6, 0xf5, 0xff, 0xff,
  0x04, 0x00, 0x00, 0x00, 0x00, 0x04, 0x00, 0x00, 0x1d, 0x01, 0xeb, 0xbf,
  0x12, 0xff, 0xe4, 0x4e, 0xdc, 0x29, 0xb3, 0xdb, 0x1b, 0xda, 0x24, 0xa8,
  0xfa, 0x0d, 0x18, 0xbe, 0x29, 0x46, 0x1f, 0x25, 0x14, 0x36, 0xc3, 0x00,
  0xdf, 0xe9, 0x1f, 0xe4, 0x1c, 0xe0, 0x28, 0x14, 0xd2, 0x07, 0x04, 0xcb,
  0xce, 0xff, 0xf6, 0xe9, 0x2f, 0xd5, 0xfb, 0xf4, 0xdb, 0x39, 0x0b, 0x01,
  0xe6, 0x2e, 0xf5, 0xe5, 0x3a, 0x0d, 0xd0, 0xf6, 0x0d, 0x00, 0x2f, 0x4c,
  0x1f, 0x08, 0xc2, 0xf0, 0x02, 0x10, 0xda, 0xc2, 0xff, 0xfa, 0xfe, 0xf9,
  0xed, 0xeb, 0xf0, 0x18, 0xdd, 0x19, 0x0d, 0xf6, 0x27, 0x09, 0xe7, 0x2b,
  0xdb, 0xfc, 0xe4, 0x26, 0xfc, 0xaf, 0x20, 0xe9, 0x39, 0x20, 0xfb, 0xd1,
  0xfb, 0x0c, 0x04, 0xc4, 0xde, 0xe6, 0xea, 0x13, 0x10, 0xee, 0x1b, 0xed,
  0x12, 0xff, 0xdb, 0x23, 0xcb, 0xcb, 0x16, 0x03, 0x05, 0xfc, 0xff, 0x15,
  0x2d, 0x13, 0xdd, 0xfd, 0xf3, 0xfb, 0xfa, 0xf9, 0xf8, 0x06, 0xe2, 0xea,
  0xf5, 0x04, 0xd0, 0xc2, 0xf8, 0xe5, 0x17, 0xc2, 0x04, 0x2f, 0xee, 0xea,
  0x17, 0x0b, 0x0e, 0x00, 0xfd, 0x1c, 0xd3, 0x0f, 0xdd, 0xf5, 0x10, 0xe1,
  0xc0, 0x0b, 0x1b, 0x0a, 0x05, 0xdc, 0xfb, 0x08, 0xd9, 0x2a, 0xef, 0xd5,
  0xfb, 0xdc, 0xd7, 0xe8, 0xba, 0x35, 0x29, 0xea, 0x21, 0x16, 0x2e, 0xe8,
  0xf1, 0x00, 0xb7, 0xe1, 0xdd, 0x11, 0x04, 0x1f, 0xec, 0xf0, 0x28, 0xd1,
  0xe3, 0xf6, 0x09, 0xc7, 0xda, 0x4f, 0x0a, 0xd6, 0x0d, 0xf2, 0xfd, 0xf6,
  0xdf, 0x43, 0x2f, 0xf9, 0x36, 0x2c, 0x02, 0xe4, 0x0a, 0x2c, 0xcf, 0xe6,
  0xf7, 0x00, 0x15, 0xcf, 0xd7, 0x68, 0x63, 0x07, 0x11, 0xed, 0x0b, 0x09,
  0xca, 0xf1, 0x04, 0xf4, 0xef, 0xe4, 0x01, 0xf8, 0xd7, 0x09, 0x06, 0xad,
  0xe3, 0xf3, 0xf9, 0xef, 0x03, 0xf6, 0xfa, 0xe8, 0xf7, 0x13, 0x1e, 0xf2,
  0x1c, 0x24, 0xd8, 0xff, 0x1b, 0x05, 0xd1, 0x13, 0xd8, 0x20, 0xcb, 0xb5,
  0xf9, 0x01, 0xd4, 0xe5, 0x01, 0x11, 0xff, 0xf3, 0x4a, 0x1a, 0x4b, 0x0a,
  0xc3, 0x00, 0xe9, 0x26, 0xa3, 0xd7, 0x03, 0x0e, 0xf5, 0x42, 0x0b, 0xcc,
  0x11, 0xed, 0x1e, 0x2b, 0x01, 0x1e, 0xe3, 0x0d, 0x1d, 0xf4, 0x02, 0xcc,
  0x10, 0x19, 0xfe, 0xe9, 0x42, 0x1d, 0x06, 0x2e, 0x10, 0xcb, 0x07, 0x33,
  0xa0, 0x0b, 0x06, 0x24, 0x1e, 0xf2, 0x08, 0xc8, 0xd8, 0xf2, 0x2c, 0xc0,
  0x1f, 0x11, 0x9f, 0xe2, 0x19, 0xd1, 0x18, 0xe9, 0xb2, 0x10, 0xf4, 0x0e,
  0x02, 0x34, 0xd0, 0x13, 0x0e, 0x25, 0xda, 0x2d, 0x01, 0xeb, 0x30, 0xea,
  0xf8, 0x23, 0xd0, 0x06, 0x19, 0x1b, 0x0d, 0x1b, 0x06, 0x19, 0xc1, 0xc9,
  0xff, 0x28, 0x05, 0xd5, 0x1a, 0xf2, 0xdf, 0xf8, 0xf8, 0xfe, 0x19, 0x6a,
  0xf2, 0xc7, 0x0d, 0x3d, 0xb9, 0x06, 0xef, 0xea, 0x24, 0x37, 0xfd, 0xdf,
  0x20, 0xf1, 0xea, 0x28, 0xe8, 0xc8, 0xb4, 0xfa, 0x07, 0xff, 0x16, 0xbb,
  0x24, 0x19, 0xf4, 0x06, 0x24, 0xff, 0x31, 0x24, 0x00, 0xea, 0x17, 0x14,
  0x07, 0xcd, 0xf4, 0xf3, 0x55, 0x25, 0xe5, 0x10, 0x07, 0x10, 0xf8, 0xe6,
  0x1c, 0xd9, 0xc0, 0xde, 0x0d, 0xf5, 0x25, 0xda, 0x3d, 0x04, 0xdb, 0x1f,
  0x3a, 0x04, 0x40, 0xf8, 0xe3, 0xfb, 0x02, 0x1e, 0x14, 0xe4, 0xfc, 0x44,
  0x2a, 0xea, 0x19, 0xec, 0x0a, 0xff, 0x25, 0xe9, 0x19, 0x2b, 0xd3, 0xee,
  0x0d, 0xd1, 0x0e, 0xe7, 0x09, 0x33, 0x18, 0x23, 0x35, 0x10, 0x25, 0xe4,
  0xd3, 0x01, 0x03, 0x26, 0xbb, 0x0d, 0xea, 0xea, 0x06, 0xb4, 0x14, 0x0a,
  0xed, 0xf4, 0x00, 0xc5, 0xac, 0xfa, 0xec, 0x1b, 0x2f, 0xbd, 0x0e, 0x16,
  0xd5, 0x06, 0xf5, 0x06, 0x0c, 0x26, 0xf5, 0xf1, 0x14, 0x37, 0x04, 0xd8,
  0xfa, 0x09, 0xff, 0x29, 0xfe, 0xef, 0xf1, 0xcc, 0x0c, 0x0c, 0xd3, 0x00,
  0xdc, 0x24, 0xea, 0xdf, 0x01, 0xf7, 0xe1, 0xc0, 0xee, 0x26, 0x10, 0xda,
  0x30, 0x3a, 0x08, 0xf8, 0x02, 0x07, 0xc9, 0x00, 0xfc, 0x07, 0x40, 0x1a,
  0xe2, 0x2c, 0x08, 0x06, 0x04, 0x0a, 0x0c, 0x0b, 0x00, 0x38, 0xb2, 0xda,
  0x0c, 0x01, 0xf0, 0xc8, 0xff, 0x1b, 0x0c, 0xde, 0x7f, 0xf5, 0x31, 0x1e,
  0xd0, 0xcd, 0x04, 0x10, 0xb2, 0x16, 0x3e, 0x25, 0x14, 0x33, 0x0a, 0xda,
  0x06, 0x16, 0xff, 0x14, 0x06, 0x41, 0xc4, 0xef, 0x03, 0x10, 0xdd, 0xa4,
  0x14, 0x0a, 0x02, 0x04, 0x18, 0xd1, 0x0c, 0x0b, 0xfe, 0xd3, 0x14, 0x3f,
  0xb3, 0x0d, 0x04, 0xf3, 0x13, 0x08, 0xc1, 0xee, 0x09, 0xff, 0x0b, 0x07,
  0xfc, 0x0e, 0xe9, 0x28, 0xc6, 0xde, 0x0c, 0x05, 0x0e, 0xfe, 0x00, 0x12,
  0xfb, 0xfd, 0xf6, 0x18, 0xf6, 0x0e, 0x00, 0x0b, 0x13, 0xd1, 0x0d, 0xe5,
  0x08, 0x4c, 0x01, 0xca, 0xf6, 0xea, 0xf6, 0x35, 0xe7, 0x00, 0x21, 0x06,
  0xde, 0x03, 0xdf, 0xef, 0xe4, 0x06, 0x36, 0xb1, 0x17, 0x2b, 0xd8, 0x33,
  0xe1, 0xd1, 0xb5, 0xea, 0xdd, 0xf6, 0x38, 0x1a, 0xca, 0x35, 0x2d, 0xe5,
  0x21, 0x13, 0x12, 0xe9, 0xd9, 0xf5, 0xd1, 0xda, 0x01, 0x19, 0xdb, 0xcc,
  0x2c, 0x1f, 0xe7, 0xf6, 0x16, 0x08, 0x3f, 0x03, 0x05, 0xfb, 0xde, 0x75,
  0xc6, 0x27, 0x12, 0xe8, 0x09, 0xed, 0xde, 0xd1, 0x1b, 0xe7, 0x01, 0x13,
  0xfb, 0x24, 0xdf, 0xe5, 0x09, 0xe7, 0xfa, 0xd2, 0xfb, 0xfc, 0x35, 0xf8,
  0x18, 0x07, 0x05, 0x03, 0x19, 0x1a, 0xef, 0x11, 0xc1, 0xe0, 0x34, 0xe5,
  0xdb, 0x1e, 0x09, 0xbc, 0xff, 0xeb, 0x17, 0x00, 0xcc, 0x3e, 0xcf, 0xc8,
  0xcc, 0xe1, 0xf7, 0xf3, 0xee, 0x2c, 0x70, 0xa5, 0x17, 0x36, 0xff, 0xec,
  0x1e, 0x64, 0xc7, 0x00, 0xc0, 0x2b, 0x51, 0xe5, 0x20, 0xf0, 0x0c, 0x03,
  0xea, 0xdb, 0x01, 0xf3, 0x08, 0xfd, 0x31, 0x26, 0x0b, 0xeb, 0x0d, 0x19,
  0x0b, 0xef, 0xc8, 0x3d, 0x26, 0xf2, 0xf5, 0x05, 0x0f, 0xf2, 0xdb, 0xee,
  0x12, 0xc8, 0x0d, 0x11, 0x5a, 0x2e, 0xe5, 0xe4, 0x24, 0x10, 0x07, 0xeb,
  0x21, 0xff, 0xbd, 0x03, 0x17, 0x30, 0x0f, 0x05, 0xe6, 0x01, 0xe0, 0x10,
  0xf9, 0xf6, 0x20, 0x4c, 0xff, 0xeb, 0x0c, 0x21, 0x13, 0x00, 0xf2, 0x03,
  0xda, 0x14, 0x1f, 0xd4, 0x12, 0x01, 0x12, 0xfa, 0xf1, 0x3a, 0xc3, 0xd9,
  0xd9, 0xf8, 0xf1, 0xe7, 0x1c, 0x2e, 0xe5, 0xcd, 0x23, 0x2d, 0x58, 0x1b,
  0xd0, 0xdb, 0xf2, 0x39, 0xcd, 0x01, 0x11, 0xca, 0xcd, 0xc8, 0xd7, 0xc3,
  0xda, 0xe6, 0x21, 0x0b, 0xec, 0x26, 0xf4, 0xd8, 0xfd, 0xe9, 0x24, 0xfa,
  0xc2, 0xf5, 0x05, 0x0c, 0x1a, 0x2f, 0xd1, 0xd2, 0x10, 0x22, 0xc7, 0xe5,
  0xca, 0xc0, 0x28, 0x24, 0xf2, 0x4b, 0x5a, 0xd0, 0xd5, 0xf1, 0x44, 0x0c,
  0xba, 0xe9, 0x04, 0xfb, 0xf6, 0xdb, 0x31, 0xdb, 0x02, 0xcf, 0xe2, 0xda,
  0xe4, 0xff, 0xcb, 0xe0, 0x25, 0x20, 0xff, 0x05, 0x07, 0x49, 0xf4, 0x01,
  0x09, 0x20, 0x17, 0x06, 0x13, 0x20, 0x1d, 0x00, 0x0a, 0x1c, 0x13, 0xf9,
  0xfb, 0xca, 0xfd, 0xfa, 0x16, 0x31, 0x1e, 0x01, 0x47, 0x0b, 0x21, 0x16,
  0xb8, 0xf7, 0x0f, 0x1a, 0xb9, 0x34, 0x14, 0x04, 0x2c, 0x1b, 0x04, 0xfa,
  0xde, 0x26, 0x13, 0x04, 0xf3, 0x29, 0xd1, 0xef, 0x0d, 0x0b, 0xf4, 0xde,
  0x1d, 0x50, 0xf0, 0xdc, 0x20, 0x13, 0x12, 0x42, 0xfd, 0xe3, 0xf0, 0x14,
  0xd7, 0x1f, 0xf6, 0x03, 0x0f, 0x38, 0x26, 0xf4, 0xb9, 0xf7, 0xf0, 0x10,
  0xf9, 0xd8, 0x1d, 0x2e, 0x0d, 0xd9, 0x1f, 0xfc, 0x10, 0xfd, 0xe1, 0x1f,
  0xfc, 0xda, 0x34, 0xed, 0x3e, 0xe6, 0x1c, 0x01, 0x07, 0x12, 0xdd, 0xe1,
  0xb2, 0xf9, 0xff, 0xff, 0x04, 0x00, 0x00, 0x00, 0xe0, 0x00, 0x00, 0x00,
  0x1f, 0x40, 0x39, 0x0f, 0xf1, 0xcf, 0x12, 0x21, 0x14, 0x10, 0xce, 0xff,
  0xf4, 0x8d, 0xe9, 0x98, 0x3f, 0x41, 0x09, 0x27, 0x81, 0x11, 0x41, 0x13,
  0x5c, 0xd9, 0xc7, 0xfd, 0x25, 0x1b, 0x3d, 0xf0, 0xc1, 0x1e, 0x1e, 0xe3,
  0xae, 0x03, 0xfd, 0xc4, 0xef, 0xf8, 0x2a, 0xdf, 0x35, 0x54, 0xca, 0xea,
  0x51, 0x3f, 0xa1, 0x3c, 0xda, 0x26, 0x0f, 0x0b, 0xe4, 0xcc, 0xd9, 0xe8,
  0x13, 0x68, 0xf4, 0x0a, 0xf1, 0xa9, 0x8a, 0x0f, 0x1d, 0xe5, 0x62, 0x5d,
  0x73, 0x6f, 0xfb, 0xa9, 0xcc, 0x8b, 0xf1, 0xf7, 0xcf, 0xf9, 0xdf, 0xe8,
  0xe0, 0xeb, 0xde, 0xc6, 0x1f, 0xd8, 0x29, 0xe1, 0x26, 0x01, 0x41, 0xf7,
  0x10, 0x0c, 0x4a, 0xd3, 0x27, 0x21, 0xef, 0x47, 0x5d, 0xb9, 0x1b, 0x59,
  0xef, 0x23, 0x24, 0x1a, 0x17, 0xe8, 0xbd, 0x58, 0xda, 0x65, 0xea, 0xa0,
  0x02, 0xe6, 0xda, 0x36, 0x54, 0x69, 0x24, 0xfb, 0xca, 0x10, 0x06, 0x0c,
  0x00, 0xeb, 0xad, 0x00, 0xff, 0xd0, 0x24, 0x85, 0x38, 0xbf, 0x24, 0x30,
  0xec, 0xff, 0xf8, 0xcd, 0xb2, 0xc8, 0x25, 0x03, 0xec, 0xed, 0x54, 0xd4,
  0xf1, 0x0a, 0xae, 0x27, 0x9d, 0xca, 0xf4, 0xe7, 0x4e, 0x3c, 0xf3, 0xee,
  0x16, 0xe4, 0x30, 0x47, 0x05, 0xdb, 0x11, 0x1f, 0xf3, 0x53, 0x64, 0x09,
  0x39, 0x43, 0xe4, 0x9e, 0x05, 0x3c, 0xc1, 0x3d, 0x0f, 0x21, 0x2b, 0x06,
  0x4e, 0x33, 0x0b, 0xb4, 0xbb, 0xf8, 0xfe, 0x32, 0xdd, 0x34, 0x1d, 0x55,
  0x0d, 0xd2, 0xd8, 0xed, 0x1a, 0xc8, 0x18, 0xc3, 0xed, 0xfe, 0xa4, 0x02,
  0x15, 0x5f, 0x4d, 0x0c, 0xf5, 0x43, 0xff, 0x22, 0x9e, 0xfa, 0xff, 0xff,
  0x04, 0x00, 0x00, 0x00, 0xe0, 0x00, 0x00, 0x00, 0x2f, 0xe2, 0xdb, 0x0d,
  0x19, 0xf7, 0x11, 0x35, 0x64, 0x1c, 0x60, 0xfa, 0xca, 0xfa, 0x17, 0x1c,
  0x08, 0xdf, 0xc4, 0xdb, 0x3a, 0xd9, 0x2f, 0xc1, 0xa3, 0xed, 0xd0, 0x17,
  0x10, 0x02, 0x00, 0x2d, 0x56, 0xd0, 0x13, 0x04, 0x13, 0xcc, 0x1c, 0x28,
  0xbb, 0x07, 0x0a, 0x50, 0xd2, 0x21, 0x23, 0xe8, 0x1c, 0x1c, 0x1c, 0x51,
  0xc6, 0x64, 0xd5, 0xf4, 0x06, 0x17, 0x23, 0x20, 0xdc, 0xe6, 0xc9, 0xfc,
  0xc2, 0xcf, 0x52, 0xfe, 0x3f, 0x27, 0xf2, 0x02, 0x13, 0xd3, 0xc0, 0xd2,
  0x11, 0x3d, 0xfa, 0xce, 0xdb, 0x00, 0xd7, 0xd6, 0x16, 0xb8, 0xde, 0x17,
  0x26, 0x05, 0x2c, 0x61, 0x25, 0x43, 0x0c, 0x06, 0x2b, 0x0d, 0xf5, 0x2d,
  0xf1, 0x1c, 0x1a, 0xc0, 0xe3, 0xde, 0xcb, 0x08, 0xe9, 0xab, 0x14, 0x07,
  0xda, 0x3d, 0x35, 0xe1, 0x2a, 0x15, 0x0d, 0xdb, 0xab, 0x02, 0x2e, 0xff,
  0x46, 0x2c, 0x01, 0xe7, 0x36, 0x2e, 0xbb, 0x3b, 0x1b, 0xf4, 0xe4, 0xd3,
  0xd0, 0xe9, 0xd3, 0xd7, 0xd2, 0xed, 0x05, 0x10, 0x5d, 0x39, 0x1e, 0xc8,
  0xce, 0xf0, 0x03, 0xda, 0x2c, 0xee, 0xc0, 0xf2, 0x43, 0x06, 0x42, 0x03,
  0x2a, 0xf2, 0x07, 0x1d, 0x3c, 0x45, 0x0b, 0xd7, 0x45, 0x37, 0xde, 0xd3,
  0xe6, 0xd0, 0x02, 0x6c, 0xc5, 0x11, 0x47, 0xf8, 0x0d, 0x2a, 0xf1, 0x54,
  0x50, 0x2b, 0x07, 0x13, 0x00, 0xe7, 0xd9, 0xd5, 0x25, 0x35, 0xdc, 0xee,
  0xfb, 0xe6, 0x81, 0xb7, 0xc1, 0xf3, 0xce, 0x03, 0x49, 0xfa, 0xeb, 0xf4,
  0x8d, 0x45, 0x0a, 0xe4, 0xc5, 0x45, 0x16, 0x01, 0x24, 0x21, 0xc6, 0x2b,
  0xc8, 0x36, 0xf9, 0x41, 0x8a, 0xfb, 0xff, 0xff, 0x04, 0x00, 0x00, 0x00,
  0xe0, 0x00, 0x00, 0x00, 0xc1, 0x17, 0x19, 0xe9, 0xfb, 0xd2, 0x0d, 0x15,
  0x0a, 0x15, 0xdd, 0xdd, 0x16, 0xe9, 0x01, 0xec, 0x1e, 0x11, 0xfd, 0xe1,
  0xe9, 0xf3, 0x2d, 0x1b, 0x4d, 0xf4, 0x13, 0x3a, 0x0d, 0xf2, 0xf2, 0x3b,
  0xee, 0x4b, 0xeb, 0x2a, 0x1d, 0x29, 0xd2, 0x2b, 0xe5, 0xf0, 0x02, 0x07,
  0x1b, 0x2c, 0xc2, 0xf3, 0xe5, 0xf2, 0xfc, 0x17, 0xab, 0xf3, 0x1a, 0x3a,
  0x20, 0xc8, 0xfd, 0x19, 0xbf, 0x18, 0xb5, 0x08, 0xcb, 0xe0, 0xef, 0xec,
  0x50, 0xe4, 0x27, 0x45, 0x1f, 0xf0, 0x20, 0x2b, 0x10, 0xe3, 0xc7, 0xfd,
  0xbc, 0x0a, 0xfa, 0x2c, 0xbb, 0xfd, 0xf3, 0xff, 0x0e, 0x11, 0x4c, 0x19,
  0x04, 0x1a, 0x08, 0x08, 0x03, 0x00, 0x46, 0x02, 0x08, 0xf1, 0xdf, 0x1c,
  0xca, 0x00, 0x25, 0x2c, 0x1b, 0x0f, 0xcf, 0xe0, 0xed, 0xe7, 0x0d, 0x24,
  0xcc, 0x15, 0xfc, 0x3f, 0xe3, 0xc3, 0xf1, 0xf1, 0xf6, 0x11, 0xf6, 0xe3,
  0xe5, 0xef, 0x09, 0x40, 0x30, 0x08, 0xc3, 0x26, 0xdb, 0xd7, 0x17, 0xf3,
  0xed, 0xd9, 0x07, 0xfb, 0x13, 0xfe, 0x3d, 0x1f, 0xf4, 0xd4, 0xfa, 0xcc,
  0xed, 0xd4, 0xff, 0x06, 0x05, 0x58, 0xdf, 0xff, 0xdc, 0x23, 0x0b, 0x02,
  0x1f, 0x2f, 0x00, 0x81, 0x12, 0x4a, 0x45, 0x23, 0xe4, 0x0e, 0x03, 0xeb,
  0x03, 0xda, 0x30, 0x25, 0xfa, 0xec, 0x19, 0xb1, 0xb8, 0x2e, 0xa2, 0x11,
  0xcf, 0x4d, 0xe3, 0x17, 0xf8, 0x1e, 0x07, 0xb8, 0x1d, 0xe1, 0x3a, 0xf1,
  0x02, 0xfc, 0x0a, 0xf4, 0x38, 0xef, 0xfe, 0xe5, 0x31, 0x31, 0x04, 0x07,
  0x1a, 0xf5, 0xcb, 0x23, 0xfd, 0xd4, 0x14, 0xdb, 0x08, 0x09, 0x06, 0xd8,
  0x76, 0xfc, 0xff, 0xff, 0x04, 0x00, 0x00, 0x00, 0xe0, 0x00, 0x00, 0x00,
  0x02, 0xc9, 0xfc, 0xf5, 0x4f, 0x27, 0xdf, 0x06, 0xd2, 0xe6, 0x13, 0x0c,
  0x01, 0x26, 0xf2, 0xed, 0xbf, 0xd8, 0xb7, 0x29, 0xf0, 0xf6, 0x17, 0xe8,
  0x21, 0xda, 0x0c, 0x02, 0xd8, 0x21, 0x35, 0xeb, 0x1f, 0xdd, 0x25, 0x11,
  0xb8, 0x28, 0x03, 0xed, 0x16, 0x15, 0xe2, 0xef, 0x22, 0x0a, 0x12, 0x0e,
  0x3b, 0xdf, 0x00, 0xf9, 0xc1, 0x39, 0x2c, 0x4c, 0xb9, 0x1c, 0x0a, 0xe7,
  0xe6, 0x1e, 0xf7, 0xdf, 0xe1, 0x06, 0x4e, 0x3f, 0x05, 0x52, 0xda, 0x20,
  0xfb, 0x00, 0x40, 0x16, 0x1d, 0x2e, 0x1f, 0x0a, 0xdb, 0xf5, 0x17, 0xec,
  0xd1, 0x09, 0x3b, 0x11, 0x28, 0xda, 0x3e, 0xaf, 0x14, 0x03, 0xd7, 0xed,
  0x1d, 0x24, 0x1c, 0xdc, 0x29, 0x1f, 0x20, 0x19, 0x73, 0x02, 0x3b, 0xfc,
  0xfb, 0x66, 0xd5, 0xf4, 0xfb, 0xcb, 0xf0, 0x37, 0x23, 0xd0, 0xfc, 0x04,
  0x1a, 0x2c, 0xea, 0xe9, 0xfc, 0x62, 0x1c, 0x2a, 0xf7, 0x00, 0xcc, 0x0a,
  0x2c, 0x28, 0x1e, 0x33, 0x26, 0xf5, 0xea, 0xce, 0xe1, 0x13, 0x3f, 0x5a,
  0xdb, 0x07, 0x03, 0xbc, 0x20, 0x03, 0xf3, 0x58, 0x19, 0xc6, 0x11, 0xbe,
  0xda, 0x43, 0x05, 0x35, 0xfa, 0xc1, 0xe4, 0x48, 0xef, 0xd7, 0x0d, 0x7f,
  0xff, 0xb7, 0x0e, 0xab, 0x3b, 0x35, 0xed, 0x0b, 0x17, 0xe1, 0x10, 0xb7,
  0x31, 0xde, 0xf4, 0xe9, 0x46, 0x3a, 0x26, 0x07, 0x05, 0x38, 0xfc, 0x54,
  0x37, 0x15, 0xce, 0xf1, 0xe1, 0xc4, 0x29, 0xf2, 0xed, 0xed, 0x7a, 0xf6,
  0x29, 0xee, 0x31, 0x2b, 0x15, 0x72, 0x27, 0xe2, 0x23, 0xf8, 0xfa, 0xf2,
  0x15, 0xb4, 0x1a, 0x13, 0x32, 0xd7, 0xb2, 0xe2, 0x62, 0xfd, 0xff, 0xff,
  0x04, 0x00, 0x00, 0x00, 0x04, 0x00, 0x00, 0x00, 0xd0, 0xfe, 0xff, 0xff,
  0x72, 0xfd, 0xff, 0xff, 0x04, 0x00, 0x00, 0x00, 0x20, 0x00, 0x00, 0x00,
  0x23, 0xf9, 0xad, 0x50, 0x33, 0x48, 0x43, 0x6a, 0x40, 0x9c, 0x29, 0x2b,
  0xed, 0x2d, 0x46, 0xf7, 0x69, 0xd1, 0xa6, 0x38, 0x3f, 0xef, 0x7f, 0x4f,
  0xc4, 0xa4, 0x5b, 0x29, 0xaa, 0x2d, 0xc0, 0x3d, 0x9e, 0xfd, 0xff, 0xff,
  0x04, 0x00, 0x00, 0x00, 0x80, 0x00, 0x00, 0x00, 0xac, 0xfe, 0xff, 0xff,
  0x9a, 0x02, 0x00, 0x00, 0x20, 0x00, 0x00, 0x00, 0x47, 0x00, 0x00, 0x00,
  0xc9, 0xfe, 0xff, 0xff, 0xe4, 0xfb, 0xff, 0xff, 0x1d, 0xfe, 0xff, 0xff,
  0x82, 0x02, 0x00, 0x00, 0x58, 0xfe, 0xff, 0xff, 0x66, 0x00, 0x00, 0x00,
  0xd8, 0x00, 0x00, 0x00, 0xc2, 0xfd, 0xff, 0xff, 0x2b, 0xfa, 0xff, 0xff,
  0x3e, 0xfd, 0xff, 0xff, 0xee, 0xfd, 0xff, 0xff, 0xbe, 0xff, 0xff, 0xff,
  0xc7, 0xfd, 0xff, 0xff, 0x14, 0xfc, 0xff, 0xff, 0x89, 0xfe, 0xff, 0xff,
  0x8d, 0xfe, 0xff, 0xff, 0xc9, 0xff, 0xff, 0xff, 0xa3, 0xff, 0xff, 0xff,
  0x67, 0xfe, 0xff, 0xff, 0x6a, 0xff, 0xff, 0xff, 0x58, 0xfe, 0xff, 0xff,
  0xab, 0xfe, 0xff, 0xff, 0x0c, 0xff, 0xff, 0xff, 0xcd, 0xff, 0xff, 0xff,
  0xc4, 0x03, 0x00, 0x00, 0x43, 0xfe, 0xff, 0xff, 0x7a, 0xfd, 0xff, 0xff,
  0xfb, 0xf9, 0xff, 0xff, 0x2a, 0xfe, 0xff, 0xff, 0x04, 0x00, 0x00, 0x00,
  0x80, 0x00, 0x00, 0x00, 0x34, 0x00, 0x00, 0x00, 0xfd, 0x01, 0x00, 0x00,
  0xc5, 0x02, 0x00, 0x00, 0xf1, 0x01, 0x00, 0x00, 0xfe, 0xff, 0xff, 0xff,
  0x11, 0x01, 0x00, 0x00, 0x71, 0xff, 0xff, 0xff, 0xc8, 0xfe, 0xff, 0xff,
  0x6e, 0xff, 0xff, 0xff, 0x86, 0xff, 0xff, 0xff, 0x95, 0x02, 0x00, 0x00,
  0x8e, 0x01, 0x00, 0x00, 0xea, 0x00, 0x00, 0x00, 0x7e, 0xff, 0xff, 0xff,
  0xe8, 0x00, 0x00, 0x00, 0x37, 0x00, 0x00, 0x00, 0xee, 0xff, 0xff, 0xff,
  0x12, 0xfe, 0xff, 0xff, 0xdc, 0xfe, 0xff, 0xff, 0xe3, 0xff, 0xff, 0xff,
  0xc0, 0xfc, 0xff, 0xff, 0xd2, 0xfe, 0xff, 0xff, 0x5a, 0xfe, 0xff, 0xff,
  0x2e, 0xff, 0xff, 0xff, 0xec, 0x01, 0x00, 0x00, 0x8e, 0xff, 0xff, 0xff,
  0x3b, 0x01, 0x00, 0x00, 0x10, 0x00, 0x00, 0x00, 0x67, 0x03, 0x00, 0x00,
  0xe3, 0xff, 0xff, 0xff, 0xd3, 0xfe, 0xff, 0xff, 0xb5, 0xff, 0xff, 0xff,
  0xb6, 0xfe, 0xff, 0xff, 0x04, 0x00, 0x00, 0x00, 0x80, 0x00, 0x00, 0x00,
  0x80, 0x0f, 0x00, 0x00, 0x13, 0x12, 0x00, 0x00, 0xf4, 0x0f, 0x00, 0x00,
  0xbd, 0x0f, 0x00, 0x00, 0xc2, 0x11, 0x00, 0x00, 0xa1, 0x0b, 0x00, 0x00,
  0x44, 0x10, 0x00, 0x00, 0x0e, 0x0b, 0x00, 0x00, 0x3a, 0x11, 0x00, 0x00,
  0x79, 0x10, 0x00, 0x00, 0xcf, 0x10, 0x00, 0x00, 0x96, 0x0f, 0x00, 0x00,
  0x7c, 0x0b, 0x00, 0x00, 0x7e, 0x11, 0x00, 0x00, 0x99, 0x0e, 0x00, 0x00,
  0xf0, 0x0f, 0x00, 0x00, 0x98, 0x0f, 0x00, 0x00, 0x86, 0x0e, 0x00, 0x00,
  0x75, 0x0e, 0x00, 0x00, 0xc0, 0x0e, 0x00, 0x00, 0x82, 0x0e, 0x00, 0x00,
  0x78, 0x11, 0x00, 0x00, 0xee, 0x0e, 0x00, 0x00, 0xb4, 0x0c, 0x00, 0x00,
  0x3f, 0x0f, 0x00, 0x00, 0x48, 0x0e, 0x00, 0x00, 0x44, 0x10, 0x00, 0x00,
  0x98, 0x0e, 0x00, 0x00, 0x9b, 0x0c, 0x00, 0x00, 0x49, 0x0d, 0x00, 0x00,
  0xd4, 0x0f, 0x00, 0x00, 0x3a, 0x0e, 0x00, 0x00, 0x42, 0xff, 0xff, 0xff,
  0x04, 0x00, 0x00, 0x00, 0x80, 0x00, 0x00, 0x00, 0x0a, 0xfc, 0xff, 0xff,
  0xea, 0x02, 0x00, 0x00, 0xa0, 0xfe, 0xff, 0xff, 0x10, 0xff, 0xff, 0xff,
  0x8c, 0xfe, 0xff, 0xff, 0x79, 0xfb, 0xff, 0xff, 0xf5, 0xfc, 0xff, 0xff,
  0x78, 0x00, 0x00, 0x00, 0x92, 0xfd, 0xff, 0xff, 0x31, 0xfd, 0xff, 0xff,
  0x5d, 0xff, 0xff, 0xff, 0xc8, 0xfc, 0xff, 0xff, 0x63, 0xf9, 0xff, 0xff,
  0xcf, 0xfd, 0xff, 0xff, 0xa5, 0xfd, 0xff, 0xff, 0x4e, 0xff, 0xff, 0xff,
  0xfb, 0xfd, 0xff, 0xff, 0xbe, 0xfd, 0xff, 0xff, 0x20, 0xfc, 0xff, 0xff,
  0xa2, 0xfe, 0xff, 0xff, 0x68, 0xfe, 0xff, 0xff, 0x23, 0xfe, 0xff, 0xff,
  0xae, 0xfd, 0xff, 0xff, 0x00, 0xfc, 0xff, 0xff, 0xd3, 0xfc, 0xff, 0xff,
  0x6d, 0xfe, 0xff, 0xff, 0xaf, 0xfd, 0xff, 0xff, 0x46, 0xfc, 0xff, 0xff,
  0xee, 0x01, 0x00, 0x00, 0x99, 0xfe, 0xff, 0xff, 0x72, 0xfd, 0xff, 0xff,
  0xd1, 0xfa, 0xff, 0xff, 0xce, 0xff, 0xff, 0xff, 0x04, 0x00, 0x00, 0x00,
  0x0c, 0x00, 0x00, 0x00, 0x01, 0x00, 0x00, 0x00, 0x01, 0x00, 0x00, 0x00,
  0x01, 0x00, 0x00, 0x00, 0xe6, 0xff, 0xff, 0xff, 0x04, 0x00, 0x00, 0x00,
  0x0c, 0x00, 0x00, 0x00, 0x00, 0x00, 0x00, 0x00, 0x00, 0x00, 0x00, 0x00,
  0x00, 0x00, 0x00, 0x00, 0x00, 0x00, 0x06, 0x00, 0x08, 0x00, 0x04, 0x00,
  0x06, 0x00, 0x00, 0x00, 0x04, 0x00, 0x00, 0x00, 0x0c, 0x00, 0x00, 0x00,
  0x00, 0x00, 0x00, 0x00, 0xff, 0xff, 0xff, 0xff, 0x00, 0x00, 0x00, 0x00,
  0x9c, 0xf3, 0xff, 0xff, 0xa0, 0xf3, 0xff, 0xff, 0x0f, 0x00, 0x00, 0x00,
  0x4d, 0x4c, 0x49, 0x52, 0x20, 0x43, 0x6f, 0x6e, 0x76, 0x65, 0x72, 0x74,
  0x65, 0x64, 0x2e, 0x00, 0x01, 0x00, 0x00, 0x00, 0x14, 0x00, 0x00, 0x00,
  0x00, 0x00, 0x0e, 0x00, 0x18, 0x00, 0x14, 0x00, 0x10, 0x00, 0x0c, 0x00,
  0x08, 0x00, 0x04, 0x00, 0x0e, 0x00, 0x00, 0x00, 0x14, 0x00, 0x00, 0x00,
  0x1c, 0x00, 0x00, 0x00, 0xd8, 0x01, 0x00, 0x00, 0xdc, 0x01, 0x00, 0x00,
  0xe0, 0x01, 0x00, 0x00, 0x04, 0x00, 0x00, 0x00, 0x6d, 0x61, 0x69, 0x6e,
  0x00, 0x00, 0x00, 0x00, 0x05, 0x00, 0x00, 0x00, 0xa0, 0x01, 0x00, 0x00,
  0xdc, 0x00, 0x00, 0x00, 0x6c, 0x00, 0x00, 0x00, 0x24, 0x00, 0x00, 0x00,
  0x04, 0x00, 0x00, 0x00, 0x7e, 0xfe, 0xff, 0xff, 0x08, 0x00, 0x00, 0x00,
  0x0c, 0x00, 0x00, 0x00, 0x01, 0x00, 0x00, 0x00, 0x1d, 0x00, 0x00, 0x00,
  0x01, 0x00, 0x00, 0x00, 0x1c, 0x00, 0x00, 0x00, 0xca, 0xff, 0xff, 0xff,
  0x14, 0x00, 0x00, 0x00, 0x00, 0x00, 0x00, 0x08, 0x10, 0x00, 0x00, 0x00,
  0x14, 0x00, 0x00, 0x00, 0x03, 0x00, 0x00, 0x00, 0x40, 0xf4, 0xff, 0xff,
  0x01, 0x00, 0x00, 0x00, 0x1c, 0x00, 0x00, 0x00, 0x03, 0x00, 0x00, 0x00,
  0x1b, 0x00, 0x00, 0x00, 0x08, 0x00, 0x00, 0x00, 0x09, 0x00, 0x00, 0x00,
  0x00, 0x00, 0x0e, 0x00, 0x1a, 0x00, 0x14, 0x00, 0x10, 0x00, 0x0c, 0x00,
  0x0b, 0x00, 0x04, 0x00, 0x0e, 0x00, 0x00, 0x00, 0x24, 0x00, 0x00, 0x00,
  0x00, 0x00, 0x00, 0x20, 0x2c, 0x00, 0x00, 0x00, 0x30, 0x00, 0x00, 0x00,
  0x02, 0x00, 0x00, 0x00, 0x00, 0x00, 0x0e, 0x00, 0x10, 0x00, 0x0c, 0x00,
  0x08, 0x00, 0x00, 0x00, 0x00, 0x00, 0x04, 0x00, 0x0e, 0x00, 0x00, 0x00,
  0x02, 0x00, 0x00, 0x00, 0x05, 0x00, 0x00, 0x00, 0x05, 0x00, 0x00, 0x00,
  0x01, 0x00, 0x00, 0x00, 0x1b, 0x00, 0x00, 0x00, 0x04, 0x00, 0x00, 0x00,
  0x1a, 0x00, 0x00, 0x00, 0x01, 0x00, 0x00, 0x00, 0x02, 0x00, 0x00, 0x00,
  0x03, 0x00, 0x00, 0x00, 0x00, 0x00, 0x16, 0x00, 0x1c, 0x00, 0x18, 0x00,
  0x14, 0x00, 0x10, 0x00, 0x0f, 0x00, 0x08, 0x00, 0x00, 0x00, 0x00, 0x00,
  0x00, 0x00, 0x04, 0x00, 0x16, 0x00, 0x00, 0x00, 0x18, 0x00, 0x00, 0x00,
  0x34, 0x00, 0x00, 0x00, 0x00, 0x00, 0x00, 0x47, 0x38, 0x00, 0x00, 0x00,
  0x3c, 0x00, 0x00, 0x00, 0x01, 0x00, 0x00, 0x00, 0x05, 0x00, 0x00, 0x00,
  0x15, 0x00, 0x00, 0x00, 0x16, 0x00, 0x00, 0x00, 0x17, 0x00, 0x00, 0x00,
  0x18, 0x00, 0x00, 0x00, 0x19, 0x00, 0x00, 0x00, 0x08, 0x00, 0x0c, 0x00,
  0x0b, 0x00, 0x04, 0x00, 0x08, 0x00, 0x00, 0x00, 0x00, 0x00, 0x20, 0x41,
  0x00, 0x00, 0x00, 0x04, 0x01, 0x00, 0x00, 0x00, 0x1a, 0x00, 0x00, 0x00,
  0x18, 0x00, 0x00, 0x00, 0x12, 0x00, 0x00, 0x00, 0x0a, 0x00, 0x00, 0x00,
  0x0b, 0x00, 0x00, 0x00, 0x0c, 0x00, 0x00, 0x00, 0x0d, 0x00, 0x00, 0x00,
  0x0e, 0x00, 0x00, 0x00, 0x0f, 0x00, 0x00, 0x00, 0x10, 0x00, 0x00, 0x00,
  0x11, 0x00, 0x00, 0x00, 0xff, 0xff, 0xff, 0xff, 0xff, 0xff, 0xff, 0xff,
  0xff, 0xff, 0xff, 0xff, 0x04, 0x00, 0x00, 0x00, 0x05, 0x00, 0x00, 0x00,
  0x06, 0x00, 0x00, 0x00, 0x07, 0x00, 0x00, 0x00, 0xff, 0xff, 0xff, 0xff,
  0xff, 0xff, 0xff, 0xff, 0x13, 0x00, 0x00, 0x00, 0x14, 0x00, 0x00, 0x00,
  0xff, 0xff, 0xff, 0xff, 0xff, 0xff, 0xff, 0xff, 0xff, 0xff, 0xff, 0xff,
  0xff, 0xff, 0xff, 0xff, 0x00, 0x00, 0x0a, 0x00, 0x0c, 0x00, 0x00, 0x00,
  0x08, 0x00, 0x04, 0x00, 0x0a, 0x00, 0x00, 0x00, 0x08, 0x00, 0x00, 0x00,
  0x0c, 0x00, 0x00, 0x00, 0x01, 0x00, 0x00, 0x00, 0x12, 0x00, 0x00, 0x00,
  0x01, 0x00, 0x00, 0x00, 0x00, 0x00, 0x00, 0x00, 0x01, 0x00, 0x00, 0x00,
  0x1d, 0x00, 0x00, 0x00, 0x01, 0x00, 0x00, 0x00, 0x00, 0x00, 0x00, 0x00,
  0x1e, 0x00, 0x00, 0x00, 0x6c, 0x0a, 0x00, 0x00, 0x1c, 0x0a, 0x00, 0x00,
  0xe0, 0x09, 0x00, 0x00, 0xa4, 0x09, 0x00, 0x00, 0x48, 0x09, 0x00, 0x00,
  0xec, 0x08, 0x00, 0x00, 0x90, 0x08, 0x00, 0x00, 0x34, 0x08, 0x00, 0x00,
  0xd0, 0x07, 0x00, 0x00, 0x64, 0x07, 0x00, 0x00, 0x00, 0x07, 0x00, 0x00,
  0x9c, 0x06, 0x00, 0x00, 0x38, 0x06, 0x00, 0x00, 0xd4, 0x05, 0x00, 0x00,
  0x78, 0x05, 0x00, 0x00, 0x1c, 0x05, 0x00, 0x00, 0xc0, 0x04, 0x00, 0x00,
  0x64, 0x04, 0x00, 0x00, 0x00, 0x04, 0x00, 0x00, 0x9c, 0x03, 0x00, 0x00,
  0x28, 0x03, 0x00, 0x00, 0xf0, 0x02, 0x00, 0x00, 0xa8, 0x02, 0x00, 0x00,
  0x70, 0x02, 0x00, 0x00, 0x34, 0x02, 0x00, 0x00, 0xc8, 0x01, 0x00, 0x00,
  0x40, 0x01, 0x00, 0x00, 0xdc, 0x00, 0x00, 0x00, 0x70, 0x00, 0x00, 0x00,
  0x04, 0x00, 0x00, 0x00, 0x1a, 0xf6, 0xff, 0xff, 0x14, 0x00, 0x00, 0x00,
  0x34, 0x00, 0x00, 0x00, 0x19, 0x00, 0x00, 0x00, 0x00, 0x00, 0x00, 0x03,
  0x48, 0x00, 0x00, 0x00, 0x0c, 0xf6, 0xff, 0xff, 0x08, 0x00, 0x00, 0x00,
  0x14, 0x00, 0x00, 0x00, 0x01, 0x00, 0x00, 0x00, 0x95, 0x00, 0x00, 0x00,
  0x00, 0x00, 0x00, 0x00, 0x00, 0x00, 0x00, 0x00, 0x01, 0x00, 0x00, 0x00,
  0xc1, 0x1b, 0xae, 0x3c, 0x19, 0x00, 0x00, 0x00, 0x53, 0x74, 0x61, 0x74,
  0x65, 0x66, 0x75, 0x6c, 0x50, 0x61, 0x72, 0x74, 0x69, 0x74, 0x69, 0x6f,
  0x6e, 0x65, 0x64, 0x43, 0x61, 0x6c, 0x6c, 0x3a, 0x30, 0x00, 0x00, 0x00,
  0x02, 0x00, 0x00, 0x00, 0x01, 0x00, 0x00, 0x00, 0x01, 0x00, 0x00, 0x00,
  0x82, 0xf6, 0xff, 0xff, 0x14, 0x00, 0x00, 0x00, 0x34, 0x00, 0x00, 0x00,
  0x18, 0x00, 0x00, 0x00, 0x00, 0x00, 0x00, 0x09, 0x48, 0x00, 0x00, 0x00,
  0x74, 0xf6, 0xff, 0xff, 0x08, 0x00, 0x00, 0x00, 0x14, 0x00, 0x00, 0x00,
  0x01, 0x00, 0x00, 0x00, 0x15, 0x00, 0x00, 0x00, 0x00, 0x00, 0x00, 0x00,
  0x00, 0x00, 0x00, 0x00, 0x01, 0x00, 0x00, 0x00, 0xc1, 0x1b, 0xae, 0x3c,
  0x1a, 0x00, 0x00, 0x00, 0x53, 0x74, 0x61, 0x74, 0x65, 0x66, 0x75, 0x6c,
  0x50, 0x61, 0x72, 0x74, 0x69, 0x74, 0x69, 0x6f, 0x6e, 0x65, 0x64, 0x43,
  0x61, 0x6c, 0x6c, 0x3a, 0x30, 0x31, 0x00, 0x00, 0x02, 0x00, 0x00, 0x00,
  0x01, 0x00, 0x00, 0x00, 0x01, 0x00, 0x00, 0x00, 0xea, 0xf6, 0xff, 0xff,
  0x14, 0x00, 0x00, 0x00, 0x34, 0x00, 0x00, 0x00, 0x17, 0x00, 0x00, 0x00,
  0x00, 0x00, 0x00, 0x09, 0x40, 0x00, 0x00, 0x00, 0xdc, 0xf6, 0xff, 0xff,
  0x08, 0x00, 0x00, 0x00, 0x14, 0x00, 0x00, 0x00, 0x01, 0x00, 0x00, 0x00,
  0x02, 0x00, 0x00, 0x00, 0x00, 0x00, 0x00, 0x00, 0x00, 0x00, 0x00, 0x00,
  0x01, 0x00, 0x00, 0x00, 0xb2, 0x68, 0xfc, 0x3b, 0x11, 0x00, 0x00, 0x00,
  0x74, 0x66, 0x6c, 0x2e, 0x73, 0x74, 0x72, 0x69, 0x64, 0x65, 0x64, 0x5f,
  0x73, 0x6c, 0x69, 0x63, 0x65, 0x00, 0x00, 0x00, 0x02, 0x00, 0x00, 0x00,
  0x01, 0x00, 0x00, 0x00, 0x20, 0x00, 0x00, 0x00, 0x4a, 0xf7, 0xff, 0xff,
  0x14, 0x00, 0x00, 0x00, 0x34, 0x00, 0x00, 0x00, 0x16, 0x00, 0x00, 0x00,
  0x00, 0x00, 0x00, 0x09, 0x50, 0x00, 0x00, 0x00, 0x3c, 0xf7, 0xff, 0xff,
  0x08, 0x00, 0x00, 0x00, 0x14, 0x00, 0x00, 0x00, 0x01, 0x00, 0x00, 0x00,
  0x02, 0x00, 0x00, 0x00, 0x00, 0x00, 0x00, 0x00, 0x00, 0x00, 0x00, 0x00,
  0x01, 0x00, 0x00, 0x00, 0xb2, 0x68, 0xfc, 0x3b, 0x20, 0x00, 0x00, 0x00,
  0x74, 0x66, 0x6c, 0x2e, 0x75, 0x6e, 0x69, 0x64, 0x69, 0x72, 0x65, 0x63,
  0x74, 0x69, 0x6f, 0x6e, 0x61, 0x6c, 0x5f, 0x73, 0x65, 0x71, 0x75, 0x65,
  0x6e, 0x63, 0x65, 0x5f, 0x6c, 0x73, 0x74, 0x6d, 0x00, 0x00, 0x00, 0x00,
  0x03, 0x00, 0x00, 0x00, 0x01, 0x00, 0x00, 0x00, 0x78, 0x00, 0x00, 0x00,
  0x20, 0x00, 0x00, 0x00, 0x00, 0x00, 0x0e, 0x00, 0x14, 0x00, 0x10, 0x00,
  0x0f, 0x00, 0x00, 0x00, 0x08, 0x00, 0x04, 0x00, 0x0e, 0x00, 0x00, 0x00,
  0x10, 0x00, 0x00, 0x00, 0x30, 0x00, 0x00, 0x00, 0x00, 0x00, 0x00, 0x09,
  0x50, 0x00, 0x00, 0x00, 0xbc, 0xf7, 0xff, 0xff, 0x08, 0x00, 0x00, 0x00,
  0x14, 0x00, 0x00, 0x00, 0x01, 0x00, 0x00, 0x00, 0x02, 0x00, 0x00, 0x00,
  0x00, 0x00, 0x00, 0x00, 0x00, 0x00, 0x00, 0x00, 0x01, 0x00, 0x00, 0x00,
  0xb2, 0x68, 0xfc, 0x3b, 0x23, 0x00, 0x00, 0x00, 0x65, 0x66, 0x66, 0x65,
  0x63, 0x74, 0x69, 0x76, 0x65, 0x5f, 0x68, 0x69, 0x64, 0x64, 0x65, 0x6e,
  0x5f, 0x73, 0x63, 0x61, 0x6c, 0x65, 0x5f, 0x69, 0x6e, 0x74, 0x65, 0x72,
  0x6d, 0x65, 0x64, 0x69, 0x61, 0x74, 0x65, 0x00, 0x01, 0x00, 0x00, 0x00,
  0x00, 0x00, 0x00, 0x00, 0x5c, 0xff, 0xff, 0xff, 0x08, 0x00, 0x00, 0x00,
  0x28, 0x00, 0x00, 0x00, 0x1c, 0x00, 0x00, 0x00, 0x69, 0x6e, 0x70, 0x75,
  0x74, 0x5f, 0x74, 0x6f, 0x5f, 0x6f, 0x75, 0x74, 0x70, 0x75, 0x74, 0x5f,
  0x69, 0x6e, 0x74, 0x65, 0x72, 0x6d, 0x65, 0x64, 0x69, 0x61, 0x74, 0x65,
  0x00, 0x00, 0x00, 0x00, 0x01, 0x00, 0x00, 0x00, 0x00, 0x00, 0x00, 0x00,
  0x94, 0xff, 0xff, 0xff, 0x08, 0x00, 0x00, 0x00, 0x24, 0x00, 0x00, 0x00,
  0x1a, 0x00, 0x00, 0x00, 0x69, 0x6e, 0x70, 0x75, 0x74, 0x5f, 0x74, 0x6f,
  0x5f, 0x63, 0x65, 0x6c, 0x6c, 0x5f, 0x69, 0x6e, 0x74, 0x65, 0x72, 0x6d,
  0x65, 0x64, 0x69, 0x61, 0x74, 0x65, 0x00, 0x00, 0x01, 0x00, 0x00, 0x00,
  0x00, 0x00, 0x00, 0x00, 0xc8, 0xff, 0xff, 0xff, 0x08, 0x00, 0x00, 0x00,
  0x28, 0x00, 0x00, 0x00, 0x1c, 0x00, 0x00, 0x00, 0x69, 0x6e, 0x70, 0x75,
  0x74, 0x5f, 0x74, 0x6f, 0x5f, 0x66, 0x6f, 0x72, 0x67, 0x65, 0x74, 0x5f,
  0x69, 0x6e, 0x74, 0x65, 0x72, 0x6d, 0x65, 0x64, 0x69, 0x61, 0x74, 0x65,
  0x00, 0x00, 0x00, 0x00, 0x01, 0x00, 0x00, 0x00, 0x00, 0x00, 0x00, 0x00,
  0x0c, 0x00, 0x0c, 0x00, 0x08, 0x00, 0x00, 0x00, 0x00, 0x00, 0x04, 0x00,
  0x0c, 0x00, 0x00, 0x00, 0x08, 0x00, 0x00, 0x00, 0x24, 0x00, 0x00, 0x00,
  0x1b, 0x00, 0x00, 0x00, 0x69, 0x6e, 0x70, 0x75, 0x74, 0x5f, 0x74, 0x6f,
  0x5f, 0x69, 0x6e, 0x70, 0x75, 0x74, 0x5f, 0x69, 0x6e, 0x74, 0x65, 0x72,
  0x6d, 0x65, 0x64, 0x69, 0x61, 0x74, 0x65, 0x00, 0x01, 0x00, 0x00, 0x00,
  0x00, 0x00, 0x00, 0x00, 0xa0, 0xff, 0xff, 0xff, 0x00, 0x00, 0x00, 0x01,
  0x10, 0x00, 0x00, 0x00, 0x30, 0x00, 0x00, 0x00, 0x00, 0x00, 0x00, 0x07,
  0x40, 0x00, 0x00, 0x00, 0x0c, 0xf9, 0xff, 0xff, 0x08, 0x00, 0x00, 0x00,
  0x14, 0x00, 0x00, 0x00, 0x01, 0x00, 0x00, 0x00, 0x00, 0x00, 0x00, 0x00,
  0x00, 0x00, 0x00, 0x00, 0x00, 0x00, 0x00, 0x00, 0x01, 0x00, 0x00, 0x00,
  0x00, 0x00, 0x00, 0x3a, 0x12, 0x00, 0x00, 0x00, 0x74, 0x66, 0x6c, 0x2e,
  0x70, 0x73, 0x65, 0x75, 0x64, 0x6f, 0x5f, 0x71, 0x63, 0x6f, 0x6e, 0x73,
  0x74, 0x31, 0x00, 0x00, 0x02, 0x00, 0x00, 0x00, 0x01, 0x00, 0x00, 0x00,
  0x20, 0x00, 0x00, 0x00, 0x10, 0x00, 0x18, 0x00, 0x14, 0x00, 0x13, 0x00,
  0x00, 0x00, 0x0c, 0x00, 0x08, 0x00, 0x07, 0x00, 0x10, 0x00, 0x00, 0x00,
  0x00, 0x00, 0x00, 0x01, 0x10, 0x00, 0x00, 0x00, 0x30, 0x00, 0x00, 0x00,
  0x00, 0x00, 0x00, 0x09, 0x40, 0x00, 0x00, 0x00, 0x7c, 0xf9, 0xff, 0xff,
  0x08, 0x00, 0x00, 0x00, 0x14, 0x00, 0x00, 0x00, 0x01, 0x00, 0x00, 0x00,
  0x02, 0x00, 0x00, 0x00, 0x00, 0x00, 0x00, 0x00, 0x00, 0x00, 0x00, 0x00,
  0x01, 0x00, 0x00, 0x00, 0xb2, 0x68, 0xfc, 0x3b, 0x11, 0x00, 0x00, 0x00,
  0x74, 0x66, 0x6c, 0x2e, 0x70, 0x73, 0x65, 0x75, 0x64, 0x6f, 0x5f, 0x71,
  0x63, 0x6f, 0x6e, 0x73, 0x74, 0x00, 0x00, 0x00, 0x02, 0x00, 0x00, 0x00,
  0x01, 0x00, 0x00, 0x00, 0x20, 0x00, 0x00, 0x00, 0xea, 0xf9, 0xff, 0xff,
  0x14, 0x00, 0x00, 0x00, 0x34, 0x00, 0x00, 0x00, 0x13, 0x00, 0x00, 0x00,
  0x00, 0x00, 0x00, 0x09, 0x3c, 0x00, 0x00, 0x00, 0xdc, 0xf9, 0xff, 0xff,
  0x08, 0x00, 0x00, 0x00, 0x14, 0x00, 0x00, 0x00, 0x01, 0x00, 0x00, 0x00,
  0x06, 0x00, 0x00, 0x00, 0x00, 0x00, 0x00, 0x00, 0x00, 0x00, 0x00, 0x00,
  0x01, 0x00, 0x00, 0x00, 0xb3, 0xe7, 0x8a, 0x3d, 0x0c, 0x00, 0x00, 0x00,
  0x74, 0x66, 0x6c, 0x2e, 0x71, 0x75, 0x61, 0x6e, 0x74, 0x69, 0x7a, 0x65,
  0x00, 0x00, 0x00, 0x00, 0x03, 0x00, 0x00, 0x00, 0x01, 0x00, 0x00, 0x00,
  0x78, 0x00, 0x00, 0x00, 0x07, 0x00, 0x00, 0x00, 0x4a, 0xfa, 0xff, 0xff,
  0x14, 0x00, 0x00, 0x00, 0x30, 0x00, 0x00, 0x00, 0x12, 0x00, 0x00, 0x00,
  0x00, 0x00, 0x00, 0x09, 0x38, 0x00, 0x00, 0x00, 0x3c, 0xfa, 0xff, 0xff,
  0x08, 0x00, 0x00, 0x00, 0x10, 0x00, 0x00, 0x00, 0x01, 0x00, 0x00, 0x00,
  0x00, 0x00, 0x00, 0x00, 0x00, 0x00, 0x00, 0x00, 0x01, 0x00, 0x00, 0x00,
  0x2e, 0x32, 0x8d, 0x3b, 0x0f, 0x00, 0x00, 0x00, 0x61, 0x72, 0x69, 0x74,
  0x68, 0x2e, 0x63, 0x6f, 0x6e, 0x73, 0x74, 0x61, 0x6e, 0x74, 0x33, 0x00,
  0x02, 0x00, 0x00, 0x00, 0x20, 0x00, 0x00, 0x00, 0x20, 0x00, 0x00, 0x00,
  0xa2, 0xfa, 0xff, 0xff, 0x14, 0x00, 0x00, 0x00, 0x30, 0x00, 0x00, 0x00,
  0x11, 0x00, 0x00, 0x00, 0x00, 0x00, 0x00, 0x09, 0x38, 0x00, 0x00, 0x00,
  0x94, 0xfa, 0xff, 0xff, 0x08, 0x00, 0x00, 0x00, 0x10, 0x00, 0x00, 0x00,
  0x01, 0x00, 0x00, 0x00, 0x00, 0x00, 0x00, 0x00, 0x00, 0x00, 0x00, 0x00,
  0x01, 0x00, 0x00, 0x00, 0x5b, 0x50, 0x82, 0x3b, 0x0f, 0x00, 0x00, 0x00,
  0x61, 0x72, 0x69, 0x74, 0x68, 0x2e, 0x63, 0x6f, 0x6e, 0x73, 0x74, 0x61,
  0x6e, 0x74, 0x34, 0x00, 0x02, 0x00, 0x00, 0x00, 0x20, 0x00, 0x00, 0x00,
  0x20, 0x00, 0x00, 0x00, 0xfa, 0xfa, 0xff, 0xff, 0x14, 0x00, 0x00, 0x00,
  0x30, 0x00, 0x00, 0x00, 0x10, 0x00, 0x00, 0x00, 0x00, 0x00, 0x00, 0x09,
  0x38, 0x00, 0x00, 0x00, 0xec, 0xfa, 0xff, 0xff, 0x08, 0x00, 0x00, 0x00,
  0x10, 0x00, 0x00, 0x00, 0x01, 0x00, 0x00, 0x00, 0x00, 0x00, 0x00, 0x00,
  0x00, 0x00, 0x00, 0x00, 0x01, 0x00, 0x00, 0x00, 0x9d, 0x3b, 0x8f, 0x3b,
  0x0f, 0x00, 0x00, 0x00, 0x61, 0x72, 0x69, 0x74, 0x68, 0x2e, 0x63, 0x6f,
  0x6e, 0x73, 0x74, 0x61, 0x6e, 0x74, 0x35, 0x00, 0x02, 0x00, 0x00, 0x00,
  0x20, 0x00, 0x00, 0x00, 0x20, 0x00, 0x00, 0x00, 0x52, 0xfb, 0xff, 0xff,
  0x14, 0x00, 0x00, 0x00, 0x30, 0x00, 0x00, 0x00, 0x0f, 0x00, 0x00, 0x00,
  0x00, 0x00, 0x00, 0x09, 0x38, 0x00, 0x00, 0x00, 0x44, 0xfb, 0xff, 0xff,
  0x08, 0x00, 0x00, 0x00, 0x10, 0x00, 0x00, 0x00, 0x01, 0x00, 0x00, 0x00,
  0x00, 0x00, 0x00, 0x00, 0x00, 0x00, 0x00, 0x00, 0x01, 0x00, 0x00, 0x00,
  0x47, 0x3d, 0x9a, 0x3b, 0x0f, 0x00, 0x00, 0x00, 0x61, 0x72, 0x69, 0x74,
  0x68, 0x2e, 0x63, 0x6f, 0x6e, 0x73, 0x74, 0x61, 0x6e, 0x74, 0x36, 0x00,
  0x02, 0x00, 0x00, 0x00, 0x20, 0x00, 0x00, 0x00, 0x20, 0x00, 0x00, 0x00,
  0xaa, 0xfb, 0xff, 0xff, 0x14, 0x00, 0x00, 0x00, 0x34, 0x00, 0x00, 0x00,
  0x0e, 0x00, 0x00, 0x00, 0x00, 0x00, 0x00, 0x09, 0x40, 0x00, 0x00, 0x00,
  0x9c, 0xfb, 0xff, 0xff, 0x08, 0x00, 0x00, 0x00, 0x14, 0x00, 0x00, 0x00,
  0x01, 0x00, 0x00, 0x00, 0x00, 0x00, 0x00, 0x00, 0x00, 0x00, 0x00, 0x00,
  0x00, 0x00, 0x00, 0x00, 0x01, 0x00, 0x00, 0x00, 0x1c, 0x23, 0x52, 0x3b,
  0x10, 0x00, 0x00, 0x00, 0x61, 0x72, 0x69, 0x74, 0x68, 0x2e, 0x63, 0x6f,
  0x6e, 0x73, 0x74, 0x61, 0x6e, 0x74, 0x31, 0x31, 0x00, 0x00, 0x00, 0x00,
  0x02, 0x00, 0x00, 0x00, 0x20, 0x00, 0x00, 0x00, 0x07, 0x00, 0x00, 0x00,
  0x0a, 0xfc, 0xff, 0xff, 0x14, 0x00, 0x00, 0x00, 0x34, 0x00, 0x00, 0x00,
  0x0d, 0x00, 0x00, 0x00, 0x00, 0x00, 0x00, 0x09, 0x40, 0x00, 0x00, 0x00,
  0xfc, 0xfb, 0xff, 0xff, 0x08, 0x00, 0x00, 0x00, 0x14, 0x00, 0x00, 0x00,
  0x01, 0x00, 0x00, 0x00, 0x00, 0x00, 0x00, 0x00, 0x00, 0x00, 0x00, 0x00,
  0x00, 0x00, 0x00, 0x00, 0x01, 0x00, 0x00, 0x00, 0xa9, 0xab, 0x4e, 0x3b,
  0x10, 0x00, 0x00, 0x00, 0x61, 0x72, 0x69, 0x74, 0x68, 0x2e, 0x63, 0x6f,
  0x6e, 0x73, 0x74, 0x61, 0x6e, 0x74, 0x31, 0x32, 0x00, 0x00, 0x00, 0x00,
  0x02, 0x00, 0x00, 0x00, 0x20, 0x00, 0x00, 0x00, 0x07, 0x00, 0x00, 0x00,
  0x6a, 0xfc, 0xff, 0xff, 0x14, 0x00, 0x00, 0x00, 0x34, 0x00, 0x00, 0x00,
  0x0c, 0x00, 0x00, 0x00, 0x00, 0x00, 0x00, 0x09, 0x40, 0x00, 0x00, 0x00,
  0x5c, 0xfc, 0xff, 0xff, 0x08, 0x00, 0x00, 0x00, 0x14, 0x00, 0x00, 0x00,
  0x01, 0x00, 0x00, 0x00, 0x00, 0x00, 0x00, 0x00, 0x00, 0x00, 0x00, 0x00,
  0x00, 0x00, 0x00, 0x00, 0x01, 0x00, 0x00, 0x00, 0xc5, 0xc0, 0x80, 0x3b,
  0x10, 0x00, 0x00, 0x00, 0x61, 0x72, 0x69, 0x74, 0x68, 0x2e, 0x63, 0x6f,
  0x6e, 0x73, 0x74, 0x61, 0x6e, 0x74, 0x31, 0x33, 0x00, 0x00, 0x00, 0x00,
  0x02, 0x00, 0x00, 0x00, 0x20, 0x00, 0x00, 0x00, 0x07, 0x00, 0x00, 0x00,
  0xca, 0xfc, 0xff, 0xff, 0x14, 0x00, 0x00, 0x00, 0x34, 0x00, 0x00, 0x00,
  0x0b, 0x00, 0x00, 0x00, 0x00, 0x00, 0x00, 0x09, 0x40, 0x00, 0x00, 0x00,
  0xbc, 0xfc, 0xff, 0xff, 0x08, 0x00, 0x00, 0x00, 0x14, 0x00, 0x00, 0x00,
  0x01, 0x00, 0x00, 0x00, 0x00, 0x00, 0x00, 0x00, 0x00, 0x00, 0x00, 0x00,
  0x00, 0x00, 0x00, 0x00, 0x01, 0x00, 0x00, 0x00, 0xc1, 0x96, 0x75, 0x3b,
  0x10, 0x00, 0x00, 0x00, 0x61, 0x72, 0x69, 0x74, 0x68, 0x2e, 0x63, 0x6f,
  0x6e, 0x73, 0x74, 0x61, 0x6e, 0x74, 0x31, 0x34, 0x00, 0x00, 0x00, 0x00,
  0x02, 0x00, 0x00, 0x00, 0x20, 0x00, 0x00, 0x00, 0x07, 0x00, 0x00, 0x00,
  0x2a, 0xfd, 0xff, 0xff, 0x14, 0x00, 0x00, 0x00, 0x30, 0x00, 0x00, 0x00,
  0x0a, 0x00, 0x00, 0x00, 0x00, 0x00, 0x00, 0x02, 0x4c, 0x00, 0x00, 0x00,
  0x1c, 0xfd, 0xff, 0xff, 0x08, 0x00, 0x00, 0x00, 0x10, 0x00, 0x00, 0x00,
  0x01, 0x00, 0x00, 0x00, 0x00, 0x00, 0x00, 0x00, 0x00, 0x00, 0x00, 0x00,
  0x01, 0x00, 0x00, 0x00, 0x65, 0x66, 0xe2, 0x37, 0x22, 0x00, 0x00, 0x00,
  0x6d, 0x6f, 0x64, 0x65, 0x6c, 0x2f, 0x64, 0x65, 0x6e, 0x73, 0x65, 0x2f,
  0x42, 0x69, 0x61, 0x73, 0x41, 0x64, 0x64, 0x2f, 0x52, 0x65, 0x61, 0x64,
  0x56, 0x61, 0x72, 0x69, 0x61, 0x62, 0x6c, 0x65, 0x4f, 0x70, 0x00, 0x00,
  0x01, 0x00, 0x00, 0x00, 0x01, 0x00, 0x00, 0x00, 0x92, 0xfd, 0xff, 0xff,
  0x14, 0x00, 0x00, 0x00, 0x34, 0x00, 0x00, 0x00, 0x09, 0x00, 0x00, 0x00,
  0x00, 0x00, 0x00, 0x09, 0x40, 0x00, 0x00, 0x00, 0x84, 0xfd, 0xff, 0xff,
  0x08, 0x00, 0x00, 0x00, 0x14, 0x00, 0x00, 0x00, 0x01, 0x00, 0x00, 0x00,
  0x00, 0x00, 0x00, 0x00, 0x00, 0x00, 0x00, 0x00, 0x00, 0x00, 0x00, 0x00,
  0x01, 0x00, 0x00, 0x00, 0xf9, 0x9e, 0x65, 0x3b, 0x13, 0x00, 0x00, 0x00,
  0x6d, 0x6f, 0x64, 0x65, 0x6c, 0x2f, 0x64, 0x65, 0x6e, 0x73, 0x65, 0x2f,
  0x4d, 0x61, 0x74, 0x4d, 0x75, 0x6c, 0x31, 0x00, 0x02, 0x00, 0x00, 0x00,
  0x01, 0x00, 0x00, 0x00, 0x20, 0x00, 0x00, 0x00, 0xf2, 0xfd, 0xff, 0xff,
  0x14, 0x00, 0x00, 0x00, 0x34, 0x00, 0x00, 0x00, 0x08, 0x00, 0x00, 0x00,
  0x00, 0x00, 0x00, 0x02, 0x3c, 0x00, 0x00, 0x00, 0xe4, 0xfd, 0xff, 0xff,
  0x08, 0x00, 0x00, 0x00, 0x14, 0x00, 0x00, 0x00, 0x01, 0x00, 0x00, 0x00,
  0x00, 0x00, 0x00, 0x00, 0x00, 0x00, 0x00, 0x00, 0x00, 0x00, 0x00, 0x00,
  0x01, 0x00, 0x00, 0x00, 0x3b, 0x0a, 0x64, 0x39, 0x0f, 0x00, 0x00, 0x00,
  0x61, 0x72, 0x69, 0x74, 0x68, 0x2e, 0x63, 0x6f, 0x6e, 0x73, 0x74, 0x61,
  0x6e, 0x74, 0x37, 0x00, 0x01, 0x00, 0x00, 0x00, 0x20, 0x00, 0x00, 0x00,
  0x4a, 0xfe, 0xff, 0xff, 0x14, 0x00, 0x00, 0x00, 0x34, 0x00, 0x00, 0x00,
  0x07, 0x00, 0x00, 0x00, 0x00, 0x00, 0x00, 0x02, 0x3c, 0x00, 0x00, 0x00,
  0x3c, 0xfe, 0xff, 0xff, 0x08, 0x00, 0x00, 0x00, 0x14, 0x00, 0x00, 0x00,
  0x01, 0x00, 0x00, 0x00, 0x00, 0x00, 0x00, 0x00, 0x00, 0x00, 0x00, 0x00,
  0x00, 0x00, 0x00, 0x00, 0x01, 0x00, 0x00, 0x00, 0x2d, 0x47, 0x60, 0x39,
  0x0f, 0x00, 0x00, 0x00, 0x61, 0x72, 0x69, 0x74, 0x68, 0x2e, 0x63, 0x6f,
  0x6e, 0x73, 0x74, 0x61, 0x6e, 0x74, 0x38, 0x00, 0x01, 0x00, 0x00, 0x00,
  0x20, 0x00, 0x00, 0x00, 0xa2, 0xfe, 0xff, 0xff, 0x14, 0x00, 0x00, 0x00,
  0x34, 0x00, 0x00, 0x00, 0x06, 0x00, 0x00, 0x00, 0x00, 0x00, 0x00, 0x02,
  0x3c, 0x00, 0x00, 0x00, 0x94, 0xfe, 0xff, 0xff, 0x08, 0x00, 0x00, 0x00,
  0x14, 0x00, 0x00, 0x00, 0x01, 0x00, 0x00, 0x00, 0x00, 0x00, 0x00, 0x00,
  0x00, 0x00, 0x00, 0x00, 0x00, 0x00, 0x00, 0x00, 0x01, 0x00, 0x00, 0x00,
  0xe4, 0xb8, 0x8b, 0x39, 0x0f, 0x00, 0x00, 0x00, 0x61, 0x72, 0x69, 0x74,
  0x68, 0x2e, 0x63, 0x6f, 0x6e, 0x73, 0x74, 0x61, 0x6e, 0x74, 0x39, 0x00,
  0x01, 0x00, 0x00, 0x00, 0x20, 0x00, 0x00, 0x00, 0xfa, 0xfe, 0xff, 0xff,
  0x14, 0x00, 0x00, 0x00, 0x30, 0x00, 0x00, 0x00, 0x05, 0x00, 0x00, 0x00,
  0x00, 0x00, 0x00, 0x02, 0x3c, 0x00, 0x00, 0x00, 0xec, 0xfe, 0xff, 0xff,
  0x08, 0x00, 0x00, 0x00, 0x10, 0x00, 0x00, 0x00, 0x01, 0x00, 0x00, 0x00,
  0x00, 0x00, 0x00, 0x00, 0x00, 0x00, 0x00, 0x00, 0x01, 0x00, 0x00, 0x00,
  0x8b, 0x41, 0x85, 0x39, 0x10, 0x00, 0x00, 0x00, 0x61, 0x72, 0x69, 0x74,
  0x68, 0x2e, 0x63, 0x6f, 0x6e, 0x73, 0x74, 0x61, 0x6e, 0x74, 0x31, 0x30,
  0x00, 0x00, 0x00, 0x00, 0x01, 0x00, 0x00, 0x00, 0x20, 0x00, 0x00, 0x00,
  0x52, 0xff, 0xff, 0xff, 0x14, 0x00, 0x00, 0x00, 0x14, 0x00, 0x00, 0x00,
  0x04, 0x00, 0x00, 0x00, 0x00, 0x00, 0x00, 0x02, 0x1c, 0x00, 0x00, 0x00,
  0x90, 0xff, 0xff, 0xff, 0x0f, 0x00, 0x00, 0x00, 0x61, 0x72, 0x69, 0x74,
  0x68, 0x2e, 0x63, 0x6f, 0x6e, 0x73, 0x74, 0x61, 0x6e, 0x74, 0x32, 0x00,
  0x01, 0x00, 0x00, 0x00, 0x03, 0x00, 0x00, 0x00, 0x8a, 0xff, 0xff, 0xff,
  0x14, 0x00, 0x00, 0x00, 0x14, 0x00, 0x00, 0x00, 0x03, 0x00, 0x00, 0x00,
  0x00, 0x00, 0x00, 0x02, 0x1c, 0x00, 0x00, 0x00, 0xc8, 0xff, 0xff, 0xff,
  0x0f, 0x00, 0x00, 0x00, 0x61, 0x72, 0x69, 0x74, 0x68, 0x2e, 0x63, 0x6f,
  0x6e, 0x73, 0x74, 0x61, 0x6e, 0x74, 0x31, 0x00, 0x01, 0x00, 0x00, 0x00,
  0x03, 0x00, 0x00, 0x00, 0xc2, 0xff, 0xff, 0xff, 0x18, 0x00, 0x00, 0x00,
  0x18, 0x00, 0x00, 0x00, 0x02, 0x00, 0x00, 0x00, 0x00, 0x00, 0x00, 0x02,
  0x20, 0x00, 0x00, 0x00, 0x04, 0x00, 0x04, 0x00, 0x04, 0x00, 0x00, 0x00,
  0x0e, 0x00, 0x00, 0x00, 0x61, 0x72, 0x69, 0x74, 0x68, 0x2e, 0x63, 0x6f,
  0x6e, 0x73, 0x74, 0x61, 0x6e, 0x74, 0x00, 0x00, 0x01, 0x00, 0x00, 0x00,
  0x03, 0x00, 0x00, 0x00, 0x00, 0x00, 0x0e, 0x00, 0x18, 0x00, 0x14, 0x00,
  0x13, 0x00, 0x0c, 0x00, 0x08, 0x00, 0x04, 0x00, 0x0e, 0x00, 0x00, 0x00,
  0x20, 0x00, 0x00, 0x00, 0x40, 0x00, 0x00, 0x00, 0x01, 0x00, 0x00, 0x00,
  0x00, 0x00, 0x00, 0x03, 0x54, 0x00, 0x00, 0x00, 0x0c, 0x00, 0x0c, 0x00,
  0x00, 0x00, 0x00, 0x00, 0x08, 0x00, 0x04, 0x00, 0x0c, 0x00, 0x00, 0x00,
  0x08, 0x00, 0x00, 0x00, 0x14, 0x00, 0x00, 0x00, 0x01, 0x00, 0x00, 0x00,
  0x86, 0x00, 0x00, 0x00, 0x00, 0x00, 0x00, 0x00, 0x00, 0x00, 0x00, 0x00,
  0x01, 0x00, 0x00, 0x00, 0xb3, 0xe7, 0x8a, 0x3d, 0x19, 0x00, 0x00, 0x00,
  0x73, 0x65, 0x72, 0x76, 0x69, 0x6e, 0x67, 0x5f, 0x64, 0x65, 0x66, 0x61,
  0x75, 0x6c, 0x74, 0x5f, 0x69, 0x6e, 0x70, 0x75, 0x74, 0x5f, 0x31, 0x3a,
  0x30, 0x00, 0x00, 0x00, 0x03, 0x00, 0x00, 0x00, 0x01, 0x00, 0x00, 0x00,
  0x78, 0x00, 0x00, 0x00, 0x07, 0x00, 0x00, 0x00, 0x04, 0x00, 0x00, 0x00,
  0x54, 0x00, 0x00, 0x00, 0x38, 0x00, 0x00, 0x00, 0x24, 0x00, 0x00, 0x00,
  0x04, 0x00, 0x00, 0x00, 0xf0, 0xff, 0xff, 0xff, 0x09, 0x00, 0x00, 0x00,
  0x04, 0x00, 0x00, 0x00, 0x00, 0x00, 0x00, 0x09, 0x0c, 0x00, 0x10, 0x00,
  0x0f, 0x00, 0x00, 0x00, 0x08, 0x00, 0x04, 0x00, 0x0c, 0x00, 0x00, 0x00,
  0x2d, 0x00, 0x00, 0x00, 0x02, 0x00, 0x00, 0x00, 0x00, 0x00, 0x00, 0x2d,
  0xf4, 0xff, 0xff, 0xff, 0x2c, 0x00, 0x00, 0x00, 0x00, 0x00, 0x00, 0x2c,
  0x0c, 0x00, 0x0c, 0x00, 0x0b, 0x00, 0x00, 0x00, 0x00, 0x00, 0x04, 0x00,
  0x0c, 0x00, 0x00, 0x00, 0x72, 0x00, 0x00, 0x00, 0x00, 0x00, 0x00, 0x72
};
